<pad>	0
<unk>	0
<s>	0
</s>	0
▁t	-0
▁th	-1
▁a	-2
▁s	-3
▁i	-4
▁h	-5
▁w	-6
ou	-7
er	-8
▁m	-9
nd	-10
▁b	-11
▁the	-12
or	-13
▁f	-14
in	-15
▁o	-16
at	-17
▁c	-18
ll	-19
en	-20
es	-21
▁d	-22
▁l	-23
▁and	-24
▁n	-25
is	-26
ar	-27
▁y	-28
▁p	-29
▁to	-30
th	-31
on	-32
▁you	-33
re	-34
an	-35
▁g	-36
▁of	-37
▁no	-38
▁wi	-39
▁wh	-40
ed	-41
ing	-42
ve	-43
st	-44
om	-45
▁be	-46
▁in	-47
▁he	-48
▁my	-49
ow	-50
se	-51
▁sh	-52
▁ha	-53
ce	-54
▁that	-55
ch	-56
le	-57
ld	-58
ay	-59
▁for	-60
ere	-61
ir	-62
▁me	-63
▁e	-64
▁is	-65
et	-66
ut	-67
gh	-68
▁with	-69
▁not	-70
im	-71
it	-72
ent	-73
▁u	-74
oo	-75
ke	-76
▁it	-77
▁r	-78
▁we	-79
our	-80
as	-81
al	-82
▁your	-83
▁his	-84
ad	-85
▁thou	-86
▁st	-87
▁k	-88
▁this	-89
▁as	-90
▁do	-91
id	-92
▁pr	-93
▁so	-94
▁but	-95
ght	-96
all	-97
▁on	-98
▁li	-99
▁have	-100
▁him	-101
ly	-102
ath	-103
us	-104
am	-105
ome	-106
ur	-107
est	-108
ain	-109
ess	-110
ver	-111
▁fr	-112
▁de	-113
ord	-114
▁will	-115
▁re	-116
▁an	-117
ould	-118
▁her	-119
▁se	-120
▁what	-121
ore	-122
ck	-123
ood	-124
▁lo	-125
ion	-126
▁thy	-127
ie	-128
ge	-129
▁su	-130
ther	-131
▁all	-132
ra	-133
▁ma	-134
▁go	-135
▁v	-136
▁by	-137
ight	-138
ter	-139
and	-140
pe	-141
▁shall	-142
ard	-143
il	-144
▁if	-145
▁tr	-146
▁ne	-147
▁kn	-148
▁ch	-149
▁are	-150
ct	-151
▁our	-152
▁thee	-153
▁lord	-154
ue	-155
▁at	-156
ich	-157
ill	-158
▁she	-159
▁there	-160
▁fa	-161
▁up	-162
▁good	-163
▁man	-164
art	-165
un	-166
▁br	-167
fe	-168
ant	-169
▁now	-170
ine	-171
▁or	-172
▁am	-173
▁com	-174
ust	-175
▁’	-176
▁j	-177
▁mo	-178
▁let	-179
ers	-180
out	-181
▁from	-182
ak	-183
▁sir	-184
▁con	-185
ell	-186
ous	-187
▁le	-188
▁[	-189
▁they	-190
sel	-191
ot	-192
one	-193
▁[_	-194
▁un	-195
▁here	-196
▁come	-197
▁would	-198
▁than	-199
▁was	-200
▁bl	-201
▁which	-202
▁more	-203
ul	-204
▁ar	-205
▁love	-206
qu	-207
ive	-208
▁sw	-209
em	-210
▁then	-211
▁bo	-212
ast	-213
▁can	-214
▁know	-215
um	-216
ble	-217
▁their	-218
▁ent	-219
ven	-220
▁them	-221
ear	-222
▁how	-223
ry	-224
▁well	-225
▁who	-226
▁when	-227
ame	-228
ind	-229
ish	-230
ic	-231
▁wor	-232
._	-233
ate	-234
ol	-235
▁say	-236
▁king	-237
▁enter	-238
au	-239
▁hath	-240
ep	-241
ake	-242
row	-243
ure	-244
ence	-245
▁pl	-246
▁spe	-247
self	-248
▁en	-249
ri	-250
▁us	-251
▁like	-252
ong	-253
▁where	-254
▁did	-255
._]	-256
▁see	-257
▁sp	-258
▁one	-259
ink	-260
▁may	-261
▁ho	-262
▁upon	-263
pp	-264
▁sc	-265
▁al	-266
▁should	-267
▁mad	-268
▁make	-269
ves	-270
▁mar	-271
▁po	-272
▁gre	-273
ance	-274
fore	-275
ound	-276
ort	-277
ook	-278
▁ag	-279
▁yet	-280
▁dis	-281
▁out	-282
▁were	-283
▁must	-284
to	-285
▁sa	-286
ather	-287
▁pro	-288
▁had	-289
ro	-290
▁some	-291
are	-292
tis	-293
▁ex	-294
ice	-295
▁too	-296
▁tim	-297
very	-298
▁such	-299
ig	-300
▁ro	-301
ap	-302
▁why	-303
ity	-304
el	-305
ff	-306
▁again	-307
▁speak	-308
▁these	-309
ies	-310
ave	-311
ace	-312
ide	-313
oun	-314
▁give	-315
ick	-316
▁hon	-317
nds	-318
▁heart	-319
▁ey	-320
▁fl	-321
▁qu	-322
orn	-323
▁cl	-324
age	-325
▁gra	-326
nder	-327
▁co	-328
▁take	-329
▁ab	-330
▁god	-331
other	-332
io	-333
ire	-334
▁look	-335
▁nor	-336
ass	-337
▁mine	-338
ness	-339
▁think	-340
ist	-341
▁most	-342
wn	-343
urn	-344
ise	-345
own	-346
▁bre	-347
uch	-348
▁tw	-349
▁off	-350
ag	-351
▁tell	-352
▁great	-353
ack	-354
▁str	-355
▁hea	-356
ose	-357
▁“	-358
ady	-359
▁time	-360
▁des	-361
ful	-362
▁aw	-363
ster	-364
ng	-365
▁gent	-366
▁bet	-367
▁fair	-368
ius	-369
▁never	-370
pt	-371
▁men	-372
▁per	-373
▁ear	-374
▁frie	-375
ft	-376
▁hear	-377
▁much	-378
▁war	-379
▁gr	-380
▁father	-381
▁doth	-382
▁ser	-383
▁fo	-384
ene	-385
▁art	-386
eet	-387
ince	-388
ber	-389
▁pe	-390
ase	-391
▁du	-392
ation	-393
thing	-394
▁gentle	-395
▁ad	-396
ress	-397
▁wr	-398
ang	-399
ith	-400
ip	-401
▁day	-402
▁death	-403
▁part	-404
▁other	-405
ings	-406
▁blood	-407
ough	-408
▁fear	-409
igh	-410
▁hand	-411
ud	-412
▁life	-413
▁sweet	-414
▁jo	-415
▁comm	-416
▁word	-417
▁pray	-418
ious	-419
ite	-420
ach	-421
▁honour	-422
▁call	-423
▁ple	-424
iv	-425
▁la	-426
▁hast	-427
ward	-428
▁heaven	-429
ile	-430
▁before	-431
oul	-432
ither	-433
▁son	-434
▁made	-435
ee	-436
▁scene	-437
ans	-438
ount	-439
▁away	-440
▁gl	-441
▁foo	-442
▁any	-443
▁master	-444
ss	-445
tle	-446
▁ke	-447
▁true	-448
ree	-449
end	-450
ull	-451
ign	-452
▁cann	-453
ph	-454
▁own	-455
▁very	-456
▁sl	-457
aught	-458
▁lady	-459
▁stand	-460
▁af	-461
▁im	-462
▁night	-463
▁pre	-464
ment	-465
▁bear	-466
▁cannot	-467
▁eyes	-468
▁thus	-469
unt	-470
ex	-471
per	-472
ia	-473
▁two	-474
tain	-475
li	-476
bl	-477
ction	-478
▁world	-479
▁arm	-480
man	-481
ian	-482
sh	-483
orrow	-484
▁being	-485
▁serv	-486
▁fir	-487
▁been	-488
▁cour	-489
▁duke	-490
able	-491
▁ay	-492
▁might	-493
que	-494
ouse	-495
▁brother	-496
▁fe	-497
▁ever	-498
▁old	-499
▁way	-500
▁poor	-501
▁done	-502
llow	-503
ty	-504
▁wom	-505
▁could	-506
land	-507
▁name	-508
▁head	-509
▁long	-510
▁noble	-511
▁comp	-512
ief	-513
▁leave	-514
▁beg	-515
▁down	-516
▁pres	-517
▁rem	-518
▁cont	-519
▁show	-520
▁till	-521
cc	-522
sw	-523
▁whose	-524
▁though	-525
▁ca	-526
iss	-527
▁dr	-528
▁into	-529
▁both	-530
▁keep	-531
▁_	-532
▁fool	-533
ts	-534
▁pur	-535
▁first	-536
▁better	-537
▁still	-538
rown	-539
▁thought	-540
less	-541
op	-542
ks	-543
ved	-544
▁dead	-545
▁find	-546
ied	-547
▁new	-548
▁nothing	-549
uck	-550
ild	-551
▁therefore	-552
▁mist	-553
▁comes	-554
▁que	-555
_.	-556
ving	-557
▁mer	-558
▁even	-559
atch	-560
ason	-561
ces	-562
ens	-563
▁grace	-564
atter	-565
▁rep	-566
▁dear	-567
▁em	-568
ause	-569
▁thr	-570
▁hold	-571
▁every	-572
os	-573
▁sm	-574
▁ind	-575
ors	-576
▁tru	-577
▁against	-578
▁char	-579
▁house	-580
▁best	-581
red	-582
▁har	-583
▁put	-584
ower	-585
▁many	-586
▁lie	-587
▁gu	-588
▁fort	-589
▁soul	-590
▁those	-591
aughter	-592
▁rich	-593
▁queen	-594
ier	-595
▁set	-596
▁nay	-597
be	-598
▁end	-599
cl	-600
▁under	-601
▁myself	-602
ears	-603
▁ant	-604
▁live	-605
▁sle	-606
ought	-607
_.]	-608
▁eng	-609
▁nat	-610
▁follow	-611
cy	-612
come	-613
▁att	-614
▁hel	-615
▁young	-616
▁fell	-617
kes	-618
▁worth	-619
▁conf	-620
▁prince	-621
▁friends	-622
une	-623
▁high	-624
▁friend	-625
aint	-626
▁peace	-627
tw	-628
▁wife	-629
▁mon	-630
▁lit	-631
▁stay	-632
▁ye	-633
▁fal	-634
▁bel	-635
▁wit	-636
oud	-637
▁tong	-638
ield	-639
▁count	-640
▁eye	-641
▁little	-642
▁el	-643
ange	-644
▁gi	-645
▁cur	-646
▁after	-647
for	-648
▁cons	-649
▁boy	-650
▁die	-651
les	-652
▁wo	-653
▁another	-654
▁app	-655
▁hour	-656
▁fall	-657
ho	-658
▁mistress	-659
▁bring	-660
▁rest	-661
▁rome	-662
▁madam	-663
well	-664
▁cap	-665
▁res	-666
▁ap	-667
▁answ	-668
▁thine	-669
▁none	-670
▁gone	-671
ison	-672
▁vir	-673
ail	-674
alk	-675
▁dev	-676
its	-677
▁daughter	-678
▁bra	-679
eds	-680
▁bes	-681
▁play	-682
▁place	-683
▁faith	-684
▁turn	-685
▁himself	-686
ew	-687
uty	-688
▁fare	-689
lf	-690
ience	-691
alt	-692
ock	-693
▁tre	-694
▁pass	-695
esar	-696
▁answer	-697
▁face	-698
▁full	-699
ench	-700
▁kind	-701
▁mind	-702
eed	-703
▁seem	-704
.—	-705
men	-706
▁bid	-707
▁hum	-708
▁lords	-709
▁since	-710
lt	-711
eunt	-712
▁mother	-713
▁present	-714
ows	-715
▁par	-716
iness	-717
ps	-718
▁once	-719
▁unto	-720
▁whom	-721
▁words	-722
▁caesar	-723
▁else	-724
▁woman	-725
if	-726
▁dost	-727
▁tongue	-728
▁court	-729
we	-730
▁sword	-731
▁tra	-732
ctor	-733
▁dra	-734
▁has	-735
esty	-736
▁far	-737
reat	-738
▁val	-739
dy	-740
▁right	-741
▁about	-742
▁dou	-743
▁sold	-744
▁light	-745
co	-746
▁wel	-747
▁tro	-748
▁forth	-749
ret	-750
▁indeed	-751
▁acc	-752
▁child	-753
▁imp	-754
▁ret	-755
exeunt	-756
▁sub	-757
▁back	-758
▁ed	-759
ale	-760
▁ere	-761
▁hus	-762
▁nature	-763
▁please	-764
▁hence	-765
ix	-766
ants	-767
▁car	-768
▁pat	-769
▁within	-770
▁kill	-771
▁said	-772
ouch	-773
▁ass	-774
▁just	-775
▁spir	-776
int	-777
▁over	-778
▁vill	-779
▁wrong	-780
▁cr	-781
ester	-782
ition	-783
ins	-784
▁dre	-785
sand	-786
▁france	-787
▁meet	-788
▁pleas	-789
▁three	-790
▁reason	-791
▁mean	-792
led	-793
▁bea	-794
▁sleep	-795
▁lu	-796
aside	-797
▁crown	-798
▁attend	-799
▁breath	-800
▁fortune	-801
▁without	-802
▁letter	-803
▁pra	-804
▁makes	-805
,—	-806
ary	-807
▁earth	-808
ars	-809
band	-810
ab	-811
av	-812
▁shame	-813
▁hope	-814
▁virt	-815
▁husband	-816
eng	-817
▁hor	-818
ister	-819
▁heard	-820
▁villain	-821
▁te	-822
▁power	-823
selves	-824
der	-825
▁ban	-826
▁bed	-827
▁sure	-828
▁mis	-829
▁anton	-830
▁marry	-831
he	-832
▁false	-833
▁home	-834
▁hang	-835
▁suff	-836
▁disp	-837
▁maid	-838
▁sil	-839
▁cause	-840
oke	-841
▁came	-842
hn	-843
▁hands	-844
ark	-845
ury	-846
ship	-847
▁pal	-848
▁help	-849
▁thing	-850
▁matter	-851
▁truth	-852
ial	-853
▁cor	-854
▁law	-855
▁welcome	-856
▁break	-857
ac	-858
▁ii	-859
pect	-860
▁ill	-861
▁gold	-862
▁thousand	-863
▁john	-864
iz	-865
▁‘	-866
▁forg	-867
air	-868
ets	-869
ory	-870
ect	-871
ult	-872
▁does	-873
▁near	-874
fect	-875
▁coun	-876
▁sound	-877
▁thank	-878
▁things	-879
ost	-880
▁ste	-881
▁gods	-882
▁wish	-883
▁farewell	-884
▁happ	-885
▁ob	-886
▁adv	-887
▁bus	-888
▁use	-889
▁through	-890
▁gentleman	-891
ents	-892
ieve	-893
ute	-894
ardon	-895
▁only	-896
▁youth	-897
let	-898
▁tom	-899
▁last	-900
▁state	-901
▁cous	-902
▁tears	-903
▁fellow	-904
▁sent	-905
▁fire	-906
▁kiss	-907
▁mark	-908
ient	-909
▁get	-910
▁fight	-911
▁rather	-912
▁op	-913
▁lay	-914
▁wilt	-915
ork	-916
▁luc	-917
▁pardon	-918
bt	-919
ling	-920
ates	-921
▁england	-922
ily	-923
yal	-924
ning	-925
▁cousin	-926
▁enough	-927
fort	-928
▁hither	-929
wh	-930
▁shalt	-931
▁den	-932
ons	-933
str	-934
ains	-935
▁saw	-936
▁sen	-937
▁tit	-938
▁stri	-939
▁hen	-940
▁pers	-941
▁weep	-942
und	-943
▁remem	-944
exit	-945
ib	-946
ash	-947
day	-948
ions	-949
▁sun	-950
▁purp	-951
gether	-952
▁honest	-953
▁vi	-954
ried	-955
▁run	-956
esh	-957
ener	-958
rant	-959
▁appe	-960
▁wind	-961
vy	-962
vers	-963
ours	-964
▁news	-965
▁grief	-966
▁maj	-967
▁exce	-968
▁henry	-969
▁sorrow	-970
▁same	-971
▁strong	-972
▁command	-973
▁body	-974
▁care	-975
use	-976
▁mur	-977
▁swear	-978
▁return	-979
ade	-980
▁enem	-981
oy	-982
gar	-983
▁cry	-984
cious	-985
▁bless	-986
▁oft	-987
▁york	-988
▁beauty	-989
ert	-990
ring	-991
▁bec	-992
▁joy	-993
▁yourself	-994
▁ph	-995
ject	-996
▁arms	-997
ime	-998
the	-999
▁fly	-1000
▁talk	-1001
ms	-1002
iet	-1003
▁land	-1004
▁while	-1005
ne	-1006
▁seen	-1007
▁want	-1008
ner	-1009
ush	-1010
▁win	-1011
▁each	-1012
▁lost	-1013
▁compan	-1014
▁strange	-1015
hold	-1016
iers	-1017
▁unc	-1018
▁desire	-1019
▁richard	-1020
ged	-1021
▁cle	-1022
ues	-1023
▁sign	-1024
▁together	-1025
aw	-1026
▁read	-1027
▁mus	-1028
▁sea	-1029
▁sing	-1030
▁devil	-1031
▁prove	-1032
ats	-1033
alth	-1034
▁int	-1035
▁quick	-1036
▁spirit	-1037
arn	-1038
ides	-1039
▁jud	-1040
night	-1041
▁draw	-1042
▁foul	-1043
▁majesty	-1044
oice	-1045
anger	-1046
▁less	-1047
▁tem	-1048
▁means	-1049
.”	-1050
up	-1051
▁gro	-1052
▁disc	-1053
▁grow	-1054
▁left	-1055
▁yours	-1056
▁au	-1057
▁hard	-1058
▁seek	-1059
▁gener	-1060
▁lies	-1061
ove	-1062
▁free	-1063
ump	-1064
ceive	-1065
▁tak	-1066
▁send	-1067
▁prison	-1068
▁born	-1069
ertain	-1070
▁antony	-1071
den	-1072
like	-1073
ween	-1074
▁dist	-1075
▁proud	-1076
ken	-1077
ised	-1078
▁som	-1079
▁half	-1080
cester	-1081
▁horse	-1082
ird	-1083
vere	-1084
▁bur	-1085
▁gave	-1086
▁supp	-1087
▁alone	-1088
▁itself	-1089
▁ty	-1090
▁thoughts	-1091
ted	-1092
▁sad	-1093
▁pity	-1094
▁room	-1095
▁says	-1096
▁sick	-1097
ced	-1098
iff	-1099
outh	-1100
▁told	-1101
▁country	-1102
▁touch	-1103
oney	-1104
▁che	-1105
▁cast	-1106
▁lead	-1107
▁fit	-1108
▁believe	-1109
▁cold	-1110
▁between	-1111
dom	-1112
▁sit	-1113
▁need	-1114
▁prom	-1115
▁music	-1116
▁ang	-1117
▁beat	-1118
▁comfort	-1119
by	-1120
pl	-1121
oth	-1122
▁inf	-1123
▁reven	-1124
▁murder	-1125
mer	-1126
wick	-1127
▁sister	-1128
ople	-1129
▁cass	-1130
▁sight	-1131
▁business	-1132
▁bu	-1133
▁looks	-1134
▁fur	-1135
▁prot	-1136
▁found	-1137
▁royal	-1138
▁ru	-1139
▁sk	-1140
▁sin	-1141
▁lad	-1142
▁tomorrow	-1143
ures	-1144
▁wear	-1145
els	-1146
ater	-1147
▁glou	-1148
amp	-1149
form	-1150
▁stre	-1151
▁doubt	-1152
▁knight	-1153
▁servant	-1154
▁warwick	-1155
bour	-1156
▁alas	-1157
itor	-1158
▁stra	-1159
▁field	-1160
▁people	-1161
▁worthy	-1162
▁service	-1163
▁thyself	-1164
ls	-1165
eech	-1166
▁page	-1167
▁bloody	-1168
▁french	-1169
az	-1170
cess	-1171
▁met	-1172
▁sur	-1173
▁general	-1174
▁ask	-1175
ounds	-1176
▁work	-1177
▁beseech	-1178
aff	-1179
ting	-1180
▁age	-1181
▁cond	-1182
▁yield	-1183
▁remember	-1184
▁soon	-1185
▁gloucester	-1186
fend	-1187
▁cra	-1188
▁fie	-1189
▁late	-1190
▁prin	-1191
▁certain	-1192
▁beh	-1193
▁lose	-1194
▁mort	-1195
▁dream	-1196
▁trust	-1197
ont	-1198
▁dog	-1199
▁ven	-1200
▁burn	-1201
▁hate	-1202
▁oath	-1203
▁knows	-1204
▁pu	-1205
aste	-1206
oman	-1207
▁mess	-1208
▁edward	-1209
lish	-1210
▁bar	-1211
▁dare	-1212
▁content	-1213
▁purpose	-1214
▁air	-1215
▁pet	-1216
▁meth	-1217
▁act	-1218
▁min	-1219
▁gentlemen	-1220
ished	-1221
▁deep	-1222
▁times	-1223
▁danger	-1224
ength	-1225
▁brave	-1226
no	-1227
▁aff	-1228
▁hot	-1229
asure	-1230
▁virtue	-1231
▁soldiers	-1232
▁wa	-1233
▁cut	-1234
▁ten	-1235
▁save	-1236
▁common	-1237
▁brought	-1238
▁dam	-1239
▁del	-1240
▁red	-1241
▁behold	-1242
br	-1243
ipp	-1244
▁yes	-1245
liver	-1246
ape	-1247
▁dem	-1248
▁company	-1249
▁(	-1250
▁holy	-1251
▁black	-1252
aim	-1253
most	-1254
▁gar	-1255
▁prov	-1256
▁offic	-1257
▁deser	-1258
▁lives	-1259
,”	-1260
anc	-1261
ond	-1262
▁patience	-1263
▁ter	-1264
▁bound	-1265
fection	-1266
▁others	-1267
ys	-1268
ague	-1269
▁sat	-1270
▁wise	-1271
▁happy	-1272
▁further	-1273
ery	-1274
▁pay	-1275
▁sum	-1276
▁whil	-1277
▁loves	-1278
rew	-1279
▁ac	-1280
unes	-1281
▁fav	-1282
▁gall	-1283
▁bold	-1284
▁writ	-1285
▁known	-1286
▁uncle	-1287
xt	-1288
▁ev	-1289
utus	-1290
▁dep	-1291
▁woe	-1292
amber	-1293
▁ange	-1294
▁morn	-1295
▁drink	-1296
▁ground	-1297
ren	-1298
ron	-1299
ift	-1300
▁ta	-1301
enty	-1302
▁col	-1303
retch	-1304
▁four	-1305
▁charge	-1306
oose	-1307
▁inc	-1308
ithee	-1309
▁open	-1310
▁self	-1311
▁grave	-1312
▁women	-1313
▁prithee	-1314
ech	-1315
▁days	-1316
ple	-1317
ated	-1318
▁div	-1319
▁foot	-1320
▁given	-1321
▁neither	-1322
▁quest	-1323
▁justice	-1324
eth	-1325
ceiv	-1326
▁learn	-1327
olk	-1328
iest	-1329
▁sec	-1330
▁hell	-1331
▁fault	-1332
▁gracious	-1333
▁desp	-1334
▁money	-1335
▁because	-1336
▁yea	-1337
▁poss	-1338
▁prof	-1339
▁didst	-1340
▁serve	-1341
▁short	-1342
▁years	-1343
▁praise	-1344
▁toward	-1345
ible	-1346
▁past	-1347
▁brutus	-1348
▁warrant	-1349
ru	-1350
king	-1351
▁jew	-1352
▁tonight	-1353
▁themselves	-1354
oot	-1355
ude	-1356
▁exp	-1357
▁woo	-1358
▁goes	-1359
▁weak	-1360
▁appear	-1361
▁something	-1362
▁requ	-1363
▁side	-1364
▁mercy	-1365
▁watch	-1366
▁pleasure	-1367
aves	-1368
▁reg	-1369
▁vis	-1370
▁ears	-1371
▁guard	-1372
▁heavy	-1373
▁ext	-1374
▁mal	-1375
▁next	-1376
▁deliver	-1377
▁fast	-1378
▁seco	-1379
▁truly	-1380
vereign	-1381
▁having	-1382
irth	-1383
▁canst	-1384
▁person	-1385
▁report	-1386
▁captain	-1387
▁confess	-1388
▁highness	-1389
ym	-1390
ned	-1391
▁sn	-1392
▁haste	-1393
▁water	-1394
▁sovereign	-1395
oof	-1396
inks	-1397
▁dro	-1398
▁eat	-1399
ments	-1400
▁base	-1401
▁sake	-1402
▁either	-1403
▁tender	-1404
▁knew	-1405
▁mock	-1406
▁plain	-1407
▁pluck	-1408
▁hearts	-1409
aud	-1410
▁tal	-1411
oward	-1412
▁chee	-1413
▁judge	-1414
▁english	-1415
gs	-1416
▁def	-1417
▁inv	-1418
▁pret	-1419
▁second	-1420
▁subject	-1421
pr	-1422
twas	-1423
▁est	-1424
▁wall	-1425
▁straight	-1426
iant	-1427
iece	-1428
▁emb	-1429
▁rec	-1430
stant	-1431
umber	-1432
▁dark	-1433
▁quar	-1434
▁knave	-1435
▁trump	-1436
▁wonder	-1437
▁soldier	-1438
▁pom	-1439
▁unt	-1440
▁buck	-1441
▁hair	-1442
▁suit	-1443
▁speech	-1444
▁thanks	-1445
▁ah	-1446
▁opp	-1447
▁sal	-1448
▁wid	-1449
owers	-1450
▁lips	-1451
▁moon	-1452
▁enemy	-1453
▁palace	-1454
ior	-1455
▁mouth	-1456
▁speed	-1457
ham	-1458
▁pen	-1459
▁sons	-1460
iar	-1461
som	-1462
▁took	-1463
▁appro	-1464
▁inter	-1465
▁voice	-1466
ally	-1467
▁cro	-1468
▁kne	-1469
▁walk	-1470
▁march	-1471
▁white	-1472
lly	-1473
old	-1474
▁ros	-1475
stand	-1476
▁soft	-1477
▁angel	-1478
▁today	-1479
▁almost	-1480
▁course	-1481
▁stands	-1482
▁question	-1483
od	-1484
uous	-1485
▁bat	-1486
▁whe	-1487
▁scar	-1488
▁worse	-1489
▁traitor	-1490
uff	-1491
augh	-1492
ered	-1493
▁ver	-1494
▁deed	-1495
▁ring	-1496
▁merry	-1497
▁change	-1498
▁feel	-1499
▁bosom	-1500
▁point	-1501
▁coming	-1502
▁ladies	-1503
▁chamber	-1504
og	-1505
sue	-1506
▁cal	-1507
▁iii	-1508
▁prep	-1509
▁coward	-1510
of	-1511
set	-1512
ices	-1513
ooth	-1514
▁town	-1515
▁scorn	-1516
▁twenty	-1517
▁entreat	-1518
▁strength	-1519
ec	-1520
gn	-1521
with	-1522
▁spoke	-1523
▁revenge	-1524
bb	-1525
▁er	-1526
▁sim	-1527
▁favour	-1528
▁hector	-1529
▁strike	-1530
ixt	-1531
ones	-1532
ities	-1533
▁forb	-1534
▁lest	-1535
▁mart	-1536
▁note	-1537
▁valiant	-1538
als	-1539
ask	-1540
▁hur	-1541
ardin	-1542
▁duty	-1543
▁harm	-1544
▁host	-1545
▁action	-1546
▁wretch	-1547
!—	-1548
▁bad	-1549
▁door	-1550
▁lust	-1551
▁stir	-1552
▁close	-1553
▁flesh	-1554
▁somet	-1555
▁methinks	-1556
ceed	-1557
▁add	-1558
eness	-1559
▁city	-1560
▁dish	-1561
▁gives	-1562
▁counsel	-1563
ott	-1564
▁pa	-1565
▁pale	-1566
▁teach	-1567
▁excell	-1568
▁unless	-1569
▁flatter	-1570
bs	-1571
read	-1572
▁ord	-1573
ander	-1574
▁above	-1575
▁needs	-1576
anch	-1577
ully	-1578
▁glad	-1579
▁loss	-1580
▁laugh	-1581
▁sport	-1582
vel	-1583
dden	-1584
▁lam	-1585
ument	-1586
▁hours	-1587
▁heavens	-1588
gg	-1589
▁trou	-1590
▁ready	-1591
▁become	-1592
▁married	-1593
sc	-1594
erd	-1595
ser	-1596
race	-1597
▁ach	-1598
▁deny	-1599
▁disg	-1600
▁guil	-1601
▁grant	-1602
▁morning	-1603
▁respect	-1604
anio	-1605
ford	-1606
ries	-1607
roke	-1608
ured	-1609
▁fet	-1610
▁earl	-1611
▁shad	-1612
▁mount	-1613
asc	-1614
rice	-1615
▁amb	-1616
▁bro	-1617
▁dire	-1618
▁creat	-1619
▁feast	-1620
▁liege	-1621
▁presently	-1622
ays	-1623
dle	-1624
eal	-1625
▁und	-1626
ready	-1627
▁sigh	-1628
▁commend	-1629
af	-1630
ank	-1631
iam	-1632
ool	-1633
rah	-1634
umb	-1635
feit	-1636
▁exc	-1637
▁low	-1638
aster	-1639
riage	-1640
▁five	-1641
▁hark	-1642
▁priv	-1643
▁begin	-1644
▁prote	-1645
▁romeo	-1646
▁speaks	-1647
▁quickly	-1648
▁witness	-1649
▁wherefore	-1650
▁lack	-1651
▁ri	-1652
▁ath	-1653
▁pol	-1654
▁drum	-1655
▁main	-1656
▁vile	-1657
▁wild	-1658
▁already	-1659
!”	-1660
ald	-1661
lex	-1662
gain	-1663
ites	-1664
▁nur	-1665
▁slain	-1666
▁cardin	-1667
ened	-1668
▁dar	-1669
▁throw	-1670
▁sudden	-1671
ger	-1672
vol	-1673
▁hu	-1674
bury	-1675
ires	-1676
▁jul	-1677
▁hide	-1678
▁cassio	-1679
▁mortal	-1680
▁sirrah	-1681
▁wherein	-1682
ils	-1683
oop	-1684
▁chr	-1685
ainted	-1686
ourish	-1687
▁cross	-1688
▁poison	-1689
▁withal	-1690
▁lordship	-1691
▁affection	-1692
▁1	-1693
bly	-1694
vern	-1695
▁fam	-1696
▁got	-1697
sters	-1698
▁heir	-1699
astard	-1700
▁seems	-1701
▁sense	-1702
▁sworn	-1703
▁wound	-1704
▁pretty	-1705
▁wouldst	-1706
▁attendants	-1707
osed	-1708
▁cam	-1709
▁rel	-1710
▁wars	-1711
▁dread	-1712
▁breast	-1713
▁suffer	-1714
▁kingdom	-1715
▁spirits	-1716
ize	-1717
unk	-1718
ndon	-1719
▁battle	-1720
▁quarre	-1721
▁messeng	-1722
▁honourable	-1723
▁ve	-1724
arge	-1725
bles	-1726
cked	-1727
ined	-1728
▁abs	-1729
▁mot	-1730
▁reb	-1731
▁wis	-1732
▁form	-1733
▁claud	-1734
▁signior	-1735
▁cardinal	-1736
▁understand	-1737
ines	-1738
ying	-1739
twere	-1740
▁anon	-1741
▁fill	-1742
▁fetch	-1743
▁kings	-1744
▁fat	-1745
▁mil	-1746
▁rage	-1747
▁among	-1748
▁often	-1749
▁timon	-1750
▁health	-1751
▁labour	-1752
▁passion	-1753
▁possess	-1754
ta	-1755
▁adm	-1756
▁acqu	-1757
▁book	-1758
▁corn	-1759
▁stop	-1760
▁wood	-1761
▁beast	-1762
▁loved	-1763
▁living	-1764
▁office	-1765
▁children	-1766
ram	-1767
▁ef	-1768
▁es	-1769
▁ga	-1770
▁ra	-1771
hood	-1772
imes	-1773
▁lim	-1774
▁pap	-1775
ution	-1776
▁chur	-1777
▁fash	-1778
▁jest	-1779
▁consc	-1780
▁saint	-1781
▁slave	-1782
▁whole	-1783
▁behind	-1784
▁bastard	-1785
▁letters	-1786
▁worship	-1787
ny	-1788
bot	-1789
cept	-1790
▁dec	-1791
claim	-1792
▁clar	-1793
▁faul	-1794
▁green	-1795
▁instr	-1796
▁resol	-1797
▁called	-1798
▁london	-1799
▁whilst	-1800
▁princes	-1801
empt	-1802
▁mod	-1803
▁trib	-1804
undred	-1805
▁sever	-1806
▁proceed	-1807
so	-1808
ina	-1809
ilus	-1810
▁ble	-1811
▁bow	-1812
▁ele	-1813
▁tar	-1814
▁wed	-1815
oured	-1816
▁exec	-1817
antage	-1818
▁cheer	-1819
▁pride	-1820
▁lucius	-1821
▁hundred	-1822
ium	-1823
▁ham	-1824
▁pit	-1825
▁dull	-1826
▁pain	-1827
▁star	-1828
▁offend	-1829
▁anything	-1830
▁excellent	-1831
oly	-1832
rey	-1833
ider	-1834
▁lion	-1835
▁port	-1836
▁publ	-1837
▁shar	-1838
ceived	-1839
▁liber	-1840
▁castle	-1841
▁chance	-1842
▁christ	-1843
▁loving	-1844
▁enemies	-1845
▁shallow	-1846
▁treason	-1847
eem	-1848
ern	-1849
med	-1850
oss	-1851
▁iv	-1852
ages	-1853
bled	-1854
ited	-1855
▁anc	-1856
▁det	-1857
▁case	-1858
▁force	-1859
▁fresh	-1860
▁roman	-1861
▁takes	-1862
▁write	-1863
▁claudio	-1864
▁clarence	-1865
▁marriage	-1866
gr	-1867
rem	-1868
ses	-1869
▁ur	-1870
▁qual	-1871
▁brief	-1872
▁deeds	-1873
▁parts	-1874
▁shows	-1875
▁effect	-1876
▁longer	-1877
▁conscience	-1878
ek	-1879
ames	-1880
▁arg	-1881
▁lov	-1882
▁feed	-1883
▁fing	-1884
ations	-1885
▁along	-1886
▁cloud	-1887
▁drown	-1888
▁heads	-1889
▁north	-1890
▁offer	-1891
▁fashion	-1892
▁suffolk	-1893
▁ge	-1894
▁ut	-1895
ians	-1896
▁eas	-1897
▁horn	-1898
▁neigh	-1899
▁double	-1900
▁mighty	-1901
▁offence	-1902
▁fortunes	-1903
ict	-1904
iew	-1905
ises	-1906
▁bit	-1907
▁spo	-1908
cover	-1909
staff	-1910
▁died	-1911
▁lend	-1912
gainst	-1913
ingham	-1914
▁friar	-1915
▁helen	-1916
▁morrow	-1917
▁ourselves	-1918
_,	-1919
ancy	-1920
fully	-1921
▁gift	-1922
▁phil	-1923
▁seal	-1924
▁tale	-1925
stance	-1926
▁small	-1927
▁talbot	-1928
▁delight	-1929
.’	-1930
su	-1931
app	-1932
▁od	-1933
▁cup	-1934
▁mac	-1935
▁tor	-1936
▁blow	-1937
▁ford	-1938
▁ship	-1939
▁troy	-1940
▁bears	-1941
▁least	-1942
▁nurse	-1943
▁troilus	-1944
ife	-1945
ona	-1946
▁enc	-1947
▁sor	-1948
▁unk	-1949
▁tear	-1950
▁birth	-1951
▁harry	-1952
▁quoth	-1953
▁steal	-1954
▁third	-1955
▁besides	-1956
▁herself	-1957
ges	-1958
▁din	-1959
▁occ	-1960
▁vol	-1961
▁prev	-1962
▁carry	-1963
▁pompe	-1964
▁souls	-1965
▁title	-1966
▁valour	-1967
arum	-1968
cent	-1969
▁cre	-1970
▁mel	-1971
▁bond	-1972
▁kept	-1973
▁blush	-1974
▁conqu	-1975
▁noise	-1976
▁troth	-1977
▁blessed	-1978
▁falstaff	-1979
▁presence	-1980
isf	-1981
▁six	-1982
▁dest	-1983
▁fine	-1984
▁list	-1985
▁stud	-1986
▁shake	-1987
▁shadow	-1988
▁consent	-1989
▁forward	-1990
▁virtuous	-1991
▁entertain	-1992
sed	-1993
ual	-1994
▁di	-1995
▁mid	-1996
▁mut	-1997
▁sch	-1998
▁vow	-1999
inius	-2000
▁move	-2001
▁safe	-2002
▁succ	-2003
▁wast	-2004
▁west	-2005
▁beard	-2006
▁curse	-2007
▁going	-2008
▁paris	-2009
▁worst	-2010
▁banish	-2011
▁pompey	-2012
▁dangerous	-2013
sp	-2014
bey	-2015
ony	-2016
oint	-2017
orge	-2018
▁won	-2019
ained	-2020
▁hurt	-2021
▁step	-2022
▁tent	-2023
▁angry	-2024
▁conce	-2025
▁issue	-2026
▁forget	-2027
▁masters	-2028
▁perform	-2029
▁buckingham	-2030
cus	-2031
uel	-2032
▁cit	-2033
▁rob	-2034
▁bird	-2035
▁kate	-2036
▁mont	-2037
▁post	-2038
▁view	-2039
▁emper	-2040
▁hadst	-2041
▁knock	-2042
▁match	-2043
▁round	-2044
▁perceive	-2045
ify	-2046
arch	-2047
ired	-2048
▁sus	-2049
▁tow	-2050
▁pros	-2051
▁went	-2052
▁fools	-2053
▁bright	-2054
▁golden	-2055
▁martius	-2056
▁measure	-2057
▁patient	-2058
ners	-2059
ural	-2060
▁unw	-2061
aking	-2062
broke	-2063
ingly	-2064
under	-2065
▁sole	-2066
▁virg	-2067
▁blind	-2068
▁paper	-2069
▁titus	-2070
▁wench	-2071
▁angelo	-2072
▁choose	-2073
▁depart	-2074
▁hamlet	-2075
▁buy	-2076
▁ref	-2077
pherd	-2078
▁army	-2079
▁cost	-2080
ealous	-2081
▁satisf	-2082
▁promise	-2083
▁whether	-2084
▁shepherd	-2085
cks	-2086
esy	-2087
ives	-2088
▁rog	-2089
asion	-2090
illes	-2091
▁laid	-2092
▁vain	-2093
▁order	-2094
▁pract	-2095
▁sharp	-2096
▁somer	-2097
▁contin	-2098
▁faults	-2099
▁thence	-2100
▁emperor	-2101
her	-2102
joy	-2103
rupt	-2104
ledge	-2105
▁opin	-2106
▁vent	-2107
▁calls	-2108
▁contr	-2109
▁piece	-2110
▁shape	-2111
▁stood	-2112
osition	-2113
▁govern	-2114
▁quarrel	-2115
▁flourish	-2116
ieu	-2117
▁sac	-2118
ility	-2119
▁fier	-2120
▁smil	-2121
▁temp	-2122
▁year	-2123
▁breed	-2124
▁cruel	-2125
▁reign	-2126
▁trans	-2127
▁summer	-2128
▁wisdom	-2129
▁prosper	-2130
ca	-2131
ray	-2132
▁ign	-2133
▁lod	-2134
▁med	-2135
▁shr	-2136
▁brit	-2137
▁jack	-2138
▁leon	-2139
entine	-2140
▁blame	-2141
▁forsw	-2142
▁glory	-2143
▁rosal	-2144
▁rough	-2145
▁humour	-2146
▁scarce	-2147
▁antonio	-2148
▁counter	-2149
▁servants	-2150
▁eg	-2151
airs	-2152
beth	-2153
icul	-2154
▁saf	-2155
▁unh	-2156
▁wal	-2157
icles	-2158
▁jove	-2159
▁stor	-2160
▁frown	-2161
▁obser	-2162
▁quiet	-2163
▁dishon	-2164
▁proper	-2165
▁greater	-2166
▁prayers	-2167
▁receive	-2168
▁thither	-2169
▁somerset	-2170
▁messenger	-2171
bed	-2172
ley	-2173
bert	-2174
hile	-2175
ided	-2176
▁bard	-2177
▁fore	-2178
▁rise	-2179
▁wert	-2180
▁church	-2181
▁approach	-2182
irm	-2183
▁av	-2184
▁boys	-2185
▁fled	-2186
▁viol	-2187
▁wash	-2188
▁adieu	-2189
▁citiz	-2190
▁gates	-2191
▁trick	-2192
▁widow	-2193
▁doctor	-2194
▁jealous	-2195
▁officers	-2196
ax	-2197
emn	-2198
head	-2199
olph	-2200
used	-2201
force	-2202
ishop	-2203
▁grie	-2204
though	-2205
▁sorry	-2206
▁athens	-2207
▁colour	-2208
▁plague	-2209
▁foolish	-2210
▁bardolph	-2211
aps	-2212
iol	-2213
ror	-2214
▁mem	-2215
garet	-2216
▁auth	-2217
▁camp	-2218
▁join	-2219
▁clear	-2220
▁glass	-2221
▁loath	-2222
▁smile	-2223
▁swift	-2224
▁weary	-2225
▁awhile	-2226
▁struck	-2227
▁fearful	-2228
ung	-2229
ding	-2230
ilia	-2231
▁cir	-2232
▁leg	-2233
▁try	-2234
ances	-2235
▁pure	-2236
▁thro	-2237
▁pains	-2238
▁trium	-2239
▁winds	-2240
▁forgot	-2241
▁margaret	-2242
uct	-2243
akes	-2244
▁equ	-2245
▁top	-2246
itors	-2247
right	-2248
▁rasc	-2249
▁usur	-2250
▁cheek	-2251
▁concl	-2252
▁proof	-2253
▁beggar	-2254
▁bitter	-2255
▁demand	-2256
▁import	-2257
▁manner	-2258
▁priest	-2259
▁winter	-2260
▁success	-2261
▁banished	-2262
ago	-2263
ths	-2264
ume	-2265
amon	-2266
ores	-2267
▁van	-2268
▁inno	-2269
▁mere	-2270
▁ours	-2271
unning	-2272
▁ignor	-2273
▁persu	-2274
▁quite	-2275
▁hearing	-2276
▁honesty	-2277
▁whither	-2278
een	-2279
vey	-2280
aked	-2281
ract	-2282
chief	-2283
▁anne	-2284
▁cred	-2285
▁herm	-2286
▁moor	-2287
▁rose	-2288
▁sail	-2289
▁alive	-2290
▁brain	-2291
▁brook	-2292
▁drawn	-2293
▁gross	-2294
▁taken	-2295
▁dinner	-2296
▁making	-2297
▁secret	-2298
▁street	-2299
▁victor	-2300
▁cassius	-2301
▁opinion	-2302
▁several	-2303
▁silence	-2304
▁whereof	-2305
▁condition	-2306
via	-2307
▁yo	-2308
anus	-2309
owed	-2310
bling	-2311
▁amaz	-2312
▁dism	-2313
▁fors	-2314
▁held	-2315
▁sort	-2316
▁proph	-2317
▁taste	-2318
▁walls	-2319
▁expect	-2320
▁wounds	-2321
▁ancient	-2322
▁achilles	-2323
▁proclaim	-2324
▁wretched	-2325
ato	-2326
ker	-2327
▁ow	-2328
cite	-2329
ello	-2330
ends	-2331
▁due	-2332
▁hop	-2333
▁inj	-2334
▁ins	-2335
ators	-2336
iffer	-2337
▁brow	-2338
▁hunt	-2339
▁borne	-2340
▁drunk	-2341
▁folly	-2342
▁kneel	-2343
▁tower	-2344
▁utter	-2345
▁direct	-2346
▁excuse	-2347
▁motion	-2348
▁remain	-2349
▁whence	-2350
▁trumpet	-2351
▁sometime	-2352
but	-2353
elia	-2354
phin	-2355
▁baw	-2356
▁fig	-2357
▁fle	-2358
▁odd	-2359
▁tyr	-2360
▁unf	-2361
▁bass	-2362
▁fame	-2363
▁song	-2364
▁wine	-2365
▁enjoy	-2366
▁falls	-2367
▁plant	-2368
▁seven	-2369
▁alarum	-2370
▁defend	-2371
▁silver	-2372
▁thrice	-2373
▁triumph	-2374
ots	-2375
orth	-2376
they	-2377
▁rid	-2378
▁hero	-2379
▁imag	-2380
▁wait	-2381
ounter	-2382
▁broke	-2383
▁charm	-2384
▁cliff	-2385
▁cheeks	-2386
▁extrem	-2387
▁george	-2388
▁embrace	-2389
▁instant	-2390
▁dispatch	-2391
com	-2392
▁py	-2393
host	-2394
reed	-2395
▁dau	-2396
idius	-2397
▁dies	-2398
▁banqu	-2399
▁meant	-2400
▁stars	-2401
▁train	-2402
▁vouch	-2403
▁commit	-2404
▁intend	-2405
▁spring	-2406
▁bearing	-2407
▁cunning	-2408
▁request	-2409
▁although	-2410
de	-2411
bus	-2412
cul	-2413
what	-2414
ysic	-2415
▁aud	-2416
▁pin	-2417
▁bare	-2418
▁fail	-2419
▁obey	-2420
▁trem	-2421
▁maiden	-2422
▁powers	-2423
▁prepar	-2424
▁wealth	-2425
▁precious	-2426
▁princely	-2427
▁prisoner	-2428
_]	-2429
alm	-2430
cil	-2431
ked	-2432
ense	-2433
tern	-2434
▁fee	-2435
▁scr	-2436
▁wol	-2437
▁fain	-2438
▁fish	-2439
▁neck	-2440
perate	-2441
▁catch	-2442
▁fears	-2443
▁ghost	-2444
▁holds	-2445
▁spend	-2446
▁author	-2447
▁boling	-2448
▁flower	-2449
▁goodly	-2450
▁necess	-2451
▁physic	-2452
▁threat	-2453
▁wanton	-2454
▁wicked	-2455
▁palamon	-2456
▁bolingbroke	-2457
ane	-2458
con	-2459
uit	-2460
zen	-2461
▁sy	-2462
rest	-2463
rius	-2464
vell	-2465
▁sol	-2466
twixt	-2467
▁alex	-2468
▁circ	-2469
▁heat	-2470
▁loud	-2471
▁mour	-2472
▁alack	-2473
▁awake	-2474
▁blows	-2475
▁bones	-2476
▁caius	-2477
▁dwell	-2478
▁smell	-2479
▁story	-2480
▁visit	-2481
▁coriol	-2482
▁endure	-2483
▁forbid	-2484
▁leaves	-2485
▁courage	-2486
▁flowers	-2487
▁towards	-2488
▁princess	-2489
▁shouldst	-2490
▁knowledge	-2491
gl	-2492
ub	-2493
iful	-2494
more	-2495
oved	-2496
rows	-2497
▁bas	-2498
▁dur	-2499
orous	-2500
ronic	-2501
woman	-2502
▁drop	-2503
▁iago	-2504
▁kins	-2505
▁wits	-2506
▁compl	-2507
▁arcite	-2508
▁simple	-2509
▁virgin	-2510
▁wrongs	-2511
▁yonder	-2512
▁dauphin	-2513
▁desires	-2514
▁honours	-2515
▁tongues	-2516
▁clifford	-2517
▁trumpets	-2518
▁encounter	-2519
bar	-2520
edy	-2521
▁ba	-2522
ease	-2523
ical	-2524
idge	-2525
▁ber	-2526
▁big	-2527
▁deg	-2528
▁don	-2529
▁emp	-2530
▁hap	-2531
usion	-2532
▁arch	-2533
▁bell	-2534
▁gain	-2535
▁rain	-2536
▁rude	-2537
ission	-2538
▁bened	-2539
▁chief	-2540
▁greet	-2541
▁large	-2542
▁purse	-2543
▁steel	-2544
▁terms	-2545
▁forest	-2546
▁liberty	-2547
▁melanch	-2548
▁thunder	-2549
umberland	-2550
▁hastings	-2551
oc	-2552
ler	-2553
dain	-2554
ever	-2555
omed	-2556
ploy	-2557
▁dry	-2558
▁led	-2559
enter	-2560
▁damn	-2561
▁deal	-2562
▁grey	-2563
▁ways	-2564
▁aside	-2565
▁dance	-2566
▁faint	-2567
▁heels	-2568
▁rogue	-2569
▁shrew	-2570
▁until	-2571
▁public	-2572
▁trouble	-2573
▁judgement	-2574
▁melancholy	-2575
mn	-2576
bit	-2577
dra	-2578
min	-2579
omp	-2580
▁ly	-2581
aced	-2582
mund	-2583
▁eld	-2584
▁owe	-2585
▁pos	-2586
▁pun	-2587
▁var	-2588
▁bene	-2589
▁conj	-2590
▁legs	-2591
▁mend	-2592
▁weap	-2593
▁prick	-2594
▁stuff	-2595
▁choice	-2596
▁employ	-2597
▁swords	-2598
▁whiles	-2599
▁greatness	-2600
fl	-2601
go	-2602
ety	-2603
ards	-2604
▁dri	-2605
▁few	-2606
▁hid	-2607
▁rag	-2608
▁tur	-2609
▁coll	-2610
▁fury	-2611
▁prop	-2612
▁anger	-2613
▁aught	-2614
▁grand	-2615
▁grows	-2616
▁shore	-2617
▁spent	-2618
▁twice	-2619
▁former	-2620
ancaster	-2621
▁officer	-2622
▁brothers	-2623
▁occasion	-2624
▁valentine	-2625
?—	-2626
oll	-2627
ued	-2628
▁ir	-2629
ging	-2630
iana	-2631
▁swe	-2632
iving	-2633
▁conc	-2634
▁cust	-2635
▁foes	-2636
▁gard	-2637
▁lang	-2638
▁lear	-2639
▁rans	-2640
ressed	-2641
▁becom	-2642
▁bleed	-2643
▁bount	-2644
▁keeps	-2645
▁percy	-2646
▁witch	-2647
▁wrath	-2648
▁edmund	-2649
▁corrupt	-2650
▁learned	-2651
▁citizens	-2652
▁consider	-2653
▁advantage	-2654
▁lancaster	-2655
jax	-2656
acle	-2657
▁aid	-2658
▁hol	-2659
▁bend	-2660
▁nose	-2661
icious	-2662
isbury	-2663
▁blunt	-2664
▁chang	-2665
▁claim	-2666
▁cried	-2667
▁start	-2668
▁weigh	-2669
utation	-2670
▁damned	-2671
▁guilty	-2672
▁herald	-2673
▁naught	-2674
▁manners	-2675
▁creature	-2676
▁montague	-2677
▁particul	-2678
▁salisbury	-2679
dem	-2680
hor	-2681
iel	-2682
ria	-2683
sem	-2684
omas	-2685
rous	-2686
▁foe	-2687
▁bids	-2688
▁fond	-2689
▁rare	-2690
chance	-2691
etrius	-2692
▁mayst	-2693
▁revol	-2694
▁thief	-2695
▁fought	-2696
▁juliet	-2697
▁lovers	-2698
▁repent	-2699
▁forgive	-2700
▁macbeth	-2701
▁christian	-2702
▁demetrius	-2703
▁northumberland	-2704
ocks	-2705
ways	-2706
▁gaz	-2707
ianca	-2708
ified	-2709
orses	-2710
▁ajax	-2711
▁cord	-2712
▁doom	-2713
▁evil	-2714
▁hail	-2715
▁roar	-2716
▁seat	-2717
▁tail	-2718
▁vows	-2719
▁lover	-2720
▁plead	-2721
▁skill	-2722
▁thomas	-2723
▁throne	-2724
▁follows	-2725
▁monster	-2726
▁perfect	-2727
▁private	-2728
▁profess	-2729
▁protest	-2730
▁proteus	-2731
▁dreadful	-2732
▁rosalind	-2733
▁ren	-2734
▁sau	-2735
▁sav	-2736
▁unp	-2737
agger	-2738
ences	-2739
ident	-2740
ising	-2741
otten	-2742
twill	-2743
▁abro	-2744
▁gate	-2745
▁idle	-2746
▁meat	-2747
▁merc	-2748
▁obed	-2749
within	-2750
▁cries	-2751
▁guilt	-2752
▁bianca	-2753
▁humble	-2754
▁safety	-2755
▁solemn	-2756
▁affairs	-2757
▁minister	-2758
▁neighbour	-2759
▁yourselves	-2760
my	-2761
hip	-2762
mon	-2763
fall	-2764
folk	-2765
oral	-2766
▁der	-2767
▁uns	-2768
ourse	-2769
▁sens	-2770
athers	-2771
▁const	-2772
▁flood	-2773
▁betray	-2774
▁borrow	-2775
▁lament	-2776
▁marcus	-2777
▁monstr	-2778
▁school	-2779
▁season	-2780
▁disdain	-2781
▁fellows	-2782
▁norfolk	-2783
▁courtesy	-2784
▁heavenly	-2785
▁senators	-2786
▁execution	-2787
bo	-2788
▁z	-2789
kin	-2790
yond	-2791
▁lav	-2792
▁mir	-2793
▁pot	-2794
▁wag	-2795
istol	-2796
reads	-2797
▁food	-2798
▁stol	-2799
▁tune	-2800
▁fiend	-2801
▁accord	-2802
▁beyond	-2803
▁looked	-2804
▁madness	-2805
▁monstrous	-2806
▁sometimes	-2807
ua	-2808
afe	-2809
ypt	-2810
▁id	-2811
▁ox	-2812
atra	-2813
▁bab	-2814
▁bod	-2815
▁esc	-2816
▁tut	-2817
▁unl	-2818
▁bott	-2819
▁comb	-2820
▁dust	-2821
▁glor	-2822
▁heed	-2823
▁knee	-2824
▁leis	-2825
▁slow	-2826
opatra	-2827
▁doing	-2828
▁egypt	-2829
▁spite	-2830
▁abroad	-2831
▁bestow	-2832
▁broken	-2833
▁malice	-2834
▁silvia	-2835
▁thrust	-2836
▁colours	-2837
▁forbear	-2838
▁knights	-2839
▁slander	-2840
▁william	-2841
▁argument	-2842
▁benedick	-2843
ams	-2844
urs	-2845
▁vo	-2846
ails	-2847
enet	-2848
udge	-2849
uten	-2850
▁aim	-2851
▁gir	-2852
ament	-2853
entio	-2854
▁bawd	-2855
▁cure	-2856
▁dign	-2857
▁mild	-2858
▁prod	-2859
▁shut	-2860
▁cover	-2861
▁cress	-2862
▁fancy	-2863
▁fruit	-2864
▁guest	-2865
▁jewel	-2866
▁langu	-2867
▁oaths	-2868
▁thick	-2869
▁trial	-2870
▁venge	-2871
▁begins	-2872
▁finger	-2873
▁fright	-2874
▁horses	-2875
▁number	-2876
▁ransom	-2877
▁thinks	-2878
▁becomes	-2879
▁charles	-2880
▁prepare	-2881
▁goodness	-2882
▁treasure	-2883
▁cleopatra	-2884
▁desperate	-2885
aid	-2886
ades	-2887
amed	-2888
iety	-2889
▁fil	-2890
ating	-2891
iance	-2892
▁dece	-2893
▁dumb	-2894
▁easy	-2895
▁empt	-2896
▁pict	-2897
ointed	-2898
▁maids	-2899
▁press	-2900
▁rever	-2901
▁study	-2902
▁tempt	-2903
▁custom	-2904
▁desdem	-2905
▁differ	-2906
▁renown	-2907
▁sooner	-2908
▁stones	-2909
▁venice	-2910
▁cressid	-2911
▁despair	-2912
▁leisure	-2913
▁quality	-2914
▁reasons	-2915
▁remembr	-2916
▁weeping	-2917
▁constant	-2918
▁subjects	-2919
ws	-2920
▁cy	-2921
leep	-2922
▁sto	-2923
chant	-2924
▁able	-2925
▁envy	-2926
▁hill	-2927
▁kent	-2928
▁nest	-2929
▁pand	-2930
▁pick	-2931
▁rank	-2932
▁sack	-2933
▁sits	-2934
▁doors	-2935
▁horns	-2936
▁knife	-2937
▁mirth	-2938
▁sheep	-2939
▁sighs	-2940
▁spare	-2941
▁stone	-2942
▁waste	-2943
▁wings	-2944
▁armour	-2945
▁clouds	-2946
▁except	-2947
▁griefs	-2948
▁rascal	-2949
▁weight	-2950
▁appears	-2951
▁breathe	-2952
▁deserve	-2953
▁andronic	-2954
▁lucentio	-2955
▁pericles	-2956
▁traitors	-2957
▁discourse	-2958
▁happiness	-2959
▁slaughter	-2960
eous	-2961
ters	-2962
wise	-2963
▁tam	-2964
ipped	-2965
omach	-2966
▁band	-2967
▁earn	-2968
▁bride	-2969
▁cloth	-2970
▁miser	-2971
▁turns	-2972
utenant	-2973
▁always	-2974
▁garden	-2975
▁killed	-2976
▁search	-2977
▁tyrant	-2978
▁therein	-2979
▁counterfeit	-2980
elt	-2981
eeth	-2982
inia	-2983
oler	-2984
▁deb	-2985
▁dun	-2986
▁sic	-2987
wards	-2988
▁bull	-2989
▁plot	-2990
verend	-2991
▁chall	-2992
▁disgu	-2993
▁guess	-2994
▁hopes	-2995
▁teeth	-2996
▁wives	-2997
ination	-2998
▁bottom	-2999
▁buried	-3000
▁circum	-3001
▁convey	-3002
▁hanged	-3003
▁kather	-3004
▁pistol	-3005
▁undone	-3006
▁dearest	-3007
▁seeming	-3008
▁warlike	-3009
▁acquaint	-3010
▁maintain	-3011
▁desdemona	-3012
▁andronicus	-3013
▁lieutenant	-3014
▁particular	-3015
alf	-3016
reh	-3017
▁ep	-3018
ieur	-3019
imer	-3020
▁bew	-3021
▁clo	-3022
▁hal	-3023
▁imm	-3024
▁nap	-3025
▁squ	-3026
▁tyb	-3027
after	-3028
itude	-3029
phrey	-3030
▁capu	-3031
▁grat	-3032
▁incl	-3033
▁line	-3034
▁chain	-3035
▁clown	-3036
▁imper	-3037
▁knees	-3038
▁loyal	-3039
▁minds	-3040
▁staff	-3041
▁denied	-3042
▁undert	-3043
▁unkind	-3044
▁vouchs	-3045
▁despite	-3046
▁pleased	-3047
▁tempest	-3048
▁authority	-3049
▁gentlewoman	-3050
ey	-3051
ads	-3052
▁da	-3053
ctav	-3054
iter	-3055
ivil	-3056
ogue	-3057
▁bap	-3058
▁coz	-3059
▁duc	-3060
▁hat	-3061
▁hit	-3062
▁pil	-3063
arted	-3064
iment	-3065
ining	-3066
▁amen	-3067
▁debt	-3068
▁ease	-3069
▁firm	-3070
▁flor	-3071
▁melt	-3072
▁nine	-3073
▁tree	-3074
▁woes	-3075
▁wond	-3076
ctions	-3077
ention	-3078
▁capit	-3079
▁cupid	-3080
▁flies	-3081
▁groan	-3082
▁honey	-3083
▁naked	-3084
▁octav	-3085
▁pyram	-3086
▁sooth	-3087
▁table	-3088
▁tyran	-3089
▁usurp	-3090
▁affect	-3091
▁baptis	-3092
▁crowns	-3093
▁diomed	-3094
▁flight	-3095
▁hollow	-3096
▁lawful	-3097
▁memory	-3098
▁object	-3099
▁seeing	-3100
▁conquer	-3101
▁express	-3102
▁gallant	-3103
▁lavinia	-3104
▁leonato	-3105
▁outward	-3106
▁humphrey	-3107
▁kindness	-3108
▁reverend	-3109
▁tribunes	-3110
▁dishonour	-3111
▁protector	-3112
any	-3113
iny	-3114
res	-3115
cell	-3116
lect	-3117
mond	-3118
sing	-3119
▁cat	-3120
▁ran	-3121
ement	-3122
omans	-3123
where	-3124
▁bark	-3125
▁burg	-3126
▁cuck	-3127
▁gown	-3128
▁lean	-3129
▁paid	-3130
▁rash	-3131
▁wake	-3132
ortens	-3133
▁drops	-3134
▁durst	-3135
▁etern	-3136
▁swell	-3137
▁asleep	-3138
▁assure	-3139
▁deadly	-3140
▁freely	-3141
▁lovely	-3142
▁regard	-3143
▁remedy	-3144
▁thrive	-3145
▁tybalt	-3146
▁burning	-3147
▁compass	-3148
▁natural	-3149
▁suspect	-3150
▁forsworn	-3151
fer	-3152
ips	-3153
ator	-3154
eter	-3155
here	-3156
raid	-3157
▁fix	-3158
▁spr	-3159
▁unb	-3160
ieves	-3161
▁bred	-3162
▁ends	-3163
▁furn	-3164
▁hers	-3165
▁inst	-3166
▁ruin	-3167
▁shed	-3168
▁sore	-3169
▁sour	-3170
▁twel	-3171
▁warm	-3172
▁womb	-3173
▁benef	-3174
▁stain	-3175
▁emilia	-3176
▁romans	-3177
▁account	-3178
▁charity	-3179
▁hortens	-3180
▁meeting	-3181
▁painted	-3182
▁slender	-3183
▁remembrance	-3184
?”	-3185
ilt	-3186
▁rh	-3187
aces	-3188
arus	-3189
illo	-3190
omio	-3191
▁apt	-3192
▁por	-3193
gment	-3194
▁cher	-3195
▁cock	-3196
▁ride	-3197
▁salt	-3198
▁tomb	-3199
▁vice	-3200
▁whis	-3201
uteous	-3202
▁grown	-3203
▁lived	-3204
▁niece	-3205
▁pursu	-3206
▁swall	-3207
▁dromio	-3208
▁exceed	-3209
▁length	-3210
▁render	-3211
▁saying	-3212
▁single	-3213
aughters	-3214
▁camillo	-3215
▁capulet	-3216
▁meaning	-3217
▁confound	-3218
▁disgrace	-3219
▁richmond	-3220
▁vouchsafe	-3221
act	-3222
bel	-3223
▁ja	-3224
cend	-3225
cing	-3226
wixt	-3227
▁env	-3228
▁hie	-3229
▁oth	-3230
▁ped	-3231
▁pis	-3232
▁rat	-3233
volio	-3234
▁begu	-3235
▁east	-3236
▁feet	-3237
▁heav	-3238
▁ones	-3239
▁pack	-3240
▁perj	-3241
▁quit	-3242
▁toby	-3243
▁tort	-3244
▁used	-3245
▁wide	-3246
fidius	-3247
sander	-3248
▁disch	-3249
▁dying	-3250
▁early	-3251
▁faces	-3252
▁peril	-3253
▁storm	-3254
▁torch	-3255
▁brings	-3256
▁disple	-3257
▁modest	-3258
▁preser	-3259
▁punish	-3260
▁spoken	-3261
▁supper	-3262
▁temper	-3263
▁twelve	-3264
▁absence	-3265
▁betwixt	-3266
▁kinsman	-3267
▁othello	-3268
▁stomach	-3269
▁streets	-3270
▁baptista	-3271
▁lysander	-3272
▁mortimer	-3273
▁received	-3274
▁sleeping	-3275
▁coriolanus	-3276
▁disposition	-3277
ten	-3278
▁hy	-3279
apes	-3280
iled	-3281
▁dot	-3282
▁fun	-3283
▁nym	-3284
▁pho	-3285
▁ted	-3286
▁wra	-3287
asket	-3288
▁bush	-3289
▁gree	-3290
▁nobl	-3291
▁petr	-3292
▁sees	-3293
▁below	-3294
▁chast	-3295
▁deter	-3296
▁equal	-3297
▁finds	-3298
▁peter	-3299
▁posth	-3300
▁realm	-3301
▁bishop	-3302
▁divine	-3303
▁estate	-3304
▁profit	-3305
▁sacred	-3306
▁smooth	-3307
▁sounds	-3308
▁strang	-3309
▁unhapp	-3310
▁empress	-3311
▁aufidius	-3312
▁contempt	-3313
▁attending	-3314
▁hereafter	-3315
▁hortensio	-3316
▁methought	-3317
▁vengeance	-3318
▁commission	-3319
▁everything	-3320
”.	-3321
▁.	-3322
ora	-3323
ric	-3324
ton	-3325
ased	-3326
umus	-3327
undy	-3328
zard	-3329
▁ape	-3330
▁eag	-3331
ision	-3332
sieur	-3333
uchio	-3334
▁boot	-3335
▁mars	-3336
▁numb	-3337
▁puts	-3338
▁reck	-3339
▁abuse	-3340
▁dares	-3341
▁purch	-3342
▁spake	-3343
▁swore	-3344
▁confer	-3345
▁credit	-3346
▁intent	-3347
▁throat	-3348
▁treach	-3349
▁conduct	-3350
▁council	-3351
▁earnest	-3352
▁tedious	-3353
▁virtues	-3354
▁burgundy	-3355
▁discover	-3356
▁innocent	-3357
▁suddenly	-3358
▁petruchio	-3359
▁posthumus	-3360
mit	-3361
ney	-3362
now	-3363
ote	-3364
ases	-3365
pped	-3366
rees	-3367
▁ali	-3368
▁pie	-3369
▁sky	-3370
house	-3371
ilius	-3372
leans	-3373
▁begg	-3374
▁iron	-3375
▁isab	-3376
▁ital	-3377
▁pier	-3378
▁pill	-3379
▁prey	-3380
▁rush	-3381
▁seas	-3382
▁trif	-3383
enance	-3384
▁armed	-3385
▁boast	-3386
▁empty	-3387
▁lands	-3388
▁merit	-3389
▁moved	-3390
▁names	-3391
▁priam	-3392
▁shine	-3393
▁store	-3394
▁bought	-3395
▁humbly	-3396
▁advance	-3397
▁complex	-3398
▁orleans	-3399
▁picture	-3400
▁pyramus	-3401
▁shortly	-3402
▁victory	-3403
▁mischief	-3404
▁monsieur	-3405
▁sickness	-3406
▁daughters	-3407
▁friendship	-3408
nat	-3409
▁va	-3410
aded	-3411
oses	-3412
▁alb	-3413
▁dig	-3414
▁dim	-3415
▁gon	-3416
▁tap	-3417
▁tid	-3418
ancis	-3419
ertes	-3420
rible	-3421
▁fift	-3422
▁girl	-3423
▁scot	-3424
▁shot	-3425
▁troj	-3426
▁alter	-3427
▁apart	-3428
▁build	-3429
▁civil	-3430
▁loose	-3431
▁twain	-3432
▁cursed	-3433
▁esteem	-3434
▁hermia	-3435
▁infect	-3436
▁repair	-3437
▁taught	-3438
▁turned	-3439
▁conceit	-3440
▁confirm	-3441
▁modesty	-3442
▁recover	-3443
▁greatest	-3444
▁mountain	-3445
▁stranger	-3446
na	-3447
esus	-3448
nown	-3449
utes	-3450
vent	-3451
▁liv	-3452
▁neg	-3453
amemn	-3454
essel	-3455
orthy	-3456
▁edge	-3457
▁miss	-3458
▁pron	-3459
▁rail	-3460
▁sand	-3461
▁snow	-3462
▁spur	-3463
▁stab	-3464
▁tend	-3465
▁wink	-3466
igence	-3467
▁fiery	-3468
▁griev	-3469
▁habit	-3470
▁image	-3471
▁pound	-3472
▁prize	-3473
▁tarqu	-3474
▁tells	-3475
▁wales	-3476
▁whore	-3477
amemnon	-3478
▁bodies	-3479
▁burden	-3480
▁chaste	-3481
▁device	-3482
▁ducats	-3483
▁exeter	-3484
▁fairly	-3485
▁tranio	-3486
▁voices	-3487
▁whores	-3488
▁francis	-3489
▁prevail	-3490
▁prevent	-3491
▁sorrows	-3492
▁ambition	-3493
▁beatrice	-3494
▁agamemnon	-3495
▁delivered	-3496
▁followers	-3497
▁following	-3498
▁prisoners	-3499
▁reputation	-3500
.]	-3501
arm	-3502
pir	-3503
she	-3504
cher	-3505
▁dew	-3506
▁rap	-3507
▁vex	-3508
▁wat	-3509
▁wax	-3510
assad	-3511
prise	-3512
▁bade	-3513
▁bill	-3514
▁bind	-3515
▁bury	-3516
▁hind	-3517
▁hung	-3518
▁root	-3519
▁rule	-3520
▁runs	-3521
▁wont	-3522
▁allow	-3523
▁brows	-3524
▁chide	-3525
▁crack	-3526
▁famil	-3527
▁raven	-3528
▁seest	-3529
▁south	-3530
▁stick	-3531
▁wears	-3532
▁accept	-3533
▁desert	-3534
▁devise	-3535
▁graces	-3536
▁helena	-3537
▁minute	-3538
▁misery	-3539
▁portia	-3540
▁slight	-3541
▁britain	-3542
▁fairest	-3543
▁plantag	-3544
▁tidings	-3545
▁garments	-3546
▁glorious	-3547
▁ignorant	-3548
▁perforce	-3549
▁possible	-3550
▁perchance	-3551
▁countenance	-3552
bes	-3553
cri	-3554
anct	-3555
atio	-3556
iate	-3557
oots	-3558
that	-3559
thur	-3560
▁avo	-3561
▁ner	-3562
clock	-3563
▁bent	-3564
▁fate	-3565
▁pair	-3566
▁proc	-3567
▁tall	-3568
▁thir	-3569
▁unse	-3570
▁wing	-3571
change	-3572
uments	-3573
▁birds	-3574
▁crave	-3575
▁fairy	-3576
▁frame	-3577
▁gifts	-3578
▁party	-3579
▁pinch	-3580
▁appreh	-3581
▁arthur	-3582
▁assist	-3583
▁beaten	-3584
▁degree	-3585
▁destro	-3586
▁dreams	-3587
▁perish	-3588
▁attempt	-3589
▁knowing	-3590
▁pronoun	-3591
▁theseus	-3592
▁thieves	-3593
▁bassanio	-3594
▁darkness	-3595
▁hencefor	-3596
▁offended	-3597
▁practice	-3598
▁speaking	-3599
▁thinking	-3600
▁creatures	-3601
▁affections	-3602
!_	-3603
”,	-3604
ado	-3605
bon	-3606
col	-3607
hol	-3608
arel	-3609
born	-3610
edge	-3611
haps	-3612
iege	-3613
rets	-3614
▁fin	-3615
▁rul	-3616
▁barn	-3617
▁calm	-3618
▁clim	-3619
▁diss	-3620
▁duch	-3621
▁fant	-3622
▁felt	-3623
▁flow	-3624
▁jour	-3625
▁repe	-3626
▁rock	-3627
▁ross	-3628
▁stat	-3629
itious	-3630
▁assur	-3631
▁blast	-3632
▁cease	-3633
▁haply	-3634
▁julia	-3635
▁limbs	-3636
▁mourn	-3637
▁oppos	-3638
▁polic	-3639
▁super	-3640
▁tread	-3641
▁weeds	-3642
hearted	-3643
▁behalf	-3644
▁brains	-3645
▁figure	-3646
▁prefer	-3647
▁retire	-3648
▁tamora	-3649
▁vessel	-3650
▁window	-3651
▁unknown	-3652
▁blessing	-3653
▁contrary	-3654
▁followed	-3655
▁plantagenet	-3656
?_	-3657
ze	-3658
enz	-3659
law	-3660
way	-3661
cian	-3662
dess	-3663
enge	-3664
oops	-3665
pend	-3666
roll	-3667
▁bag	-3668
▁eph	-3669
▁pir	-3670
▁rum	-3671
oment	-3672
▁cere	-3673
▁clam	-3674
▁dogs	-3675
▁jaqu	-3676
▁leap	-3677
▁pour	-3678
▁resc	-3679
▁suck	-3680
▁worm	-3681
bridge	-3682
idence	-3683
▁admit	-3684
▁antip	-3685
▁appar	-3686
▁blest	-3687
▁infin	-3688
▁stock	-3689
chester	-3690
ression	-3691
▁fierce	-3692
▁forces	-3693
▁groans	-3694
▁imposs	-3695
▁market	-3696
▁partly	-3697
▁policy	-3698
▁record	-3699
▁sought	-3700
▁assured	-3701
▁discont	-3702
▁fathers	-3703
▁fingers	-3704
▁forfeit	-3705
▁horatio	-3706
▁hostess	-3707
▁perhaps	-3708
▁wrought	-3709
▁familiar	-3710
▁villains	-3711
asy	-3712
avy	-3713
che	-3714
igo	-3715
draw	-3716
enes	-3717
ogen	-3718
rate	-3719
▁ash	-3720
▁lew	-3721
enius	-3722
ested	-3723
lando	-3724
ption	-3725
▁babe	-3726
▁ball	-3727
▁boar	-3728
▁cave	-3729
▁deer	-3730
▁mood	-3731
▁pear	-3732
▁poet	-3733
▁prol	-3734
▁sell	-3735
▁serp	-3736
▁sink	-3737
▁spec	-3738
seless	-3739
▁admir	-3740
▁affli	-3741
▁beaut	-3742
▁chair	-3743
▁eight	-3744
▁fatal	-3745
▁freed	-3746
▁hangs	-3747
▁incre	-3748
▁lucre	-3749
▁pitch	-3750
▁repro	-3751
▁tarry	-3752
▁trade	-3753
▁advice	-3754
▁belong	-3755
▁constr	-3756
▁dearly	-3757
▁hazard	-3758
▁inform	-3759
▁moment	-3760
▁native	-3761
▁parted	-3762
▁saturn	-3763
▁duchess	-3764
▁ephesus	-3765
▁goddess	-3766
▁numbers	-3767
▁provost	-3768
▁unhappy	-3769
▁violent	-3770
▁weapons	-3771
▁ambassad	-3772
▁forsooth	-3773
▁infinite	-3774
▁ladyship	-3775
▁according	-3776
▁beauteous	-3777
▁constable	-3778
▁complexion	-3779
▁countrymen	-3780
fr	-3781
▁&	-3782
ano	-3783
▁pi	-3784
aled	-3785
aron	-3786
inct	-3787
itch	-3788
lock	-3789
obar	-3790
uses	-3791
▁glo	-3792
▁hun	-3793
▁sem	-3794
▁ung	-3795
icate	-3796
olute	-3797
unate	-3798
▁cens	-3799
▁cler	-3800
▁crow	-3801
▁fits	-3802
▁huge	-3803
▁mass	-3804
▁odds	-3805
▁aaron	-3806
▁appet	-3807
▁creep	-3808
▁delay	-3809
▁diana	-3810
▁inher	-3811
▁month	-3812
▁paint	-3813
▁pause	-3814
▁raise	-3815
▁sanct	-3816
▁sweat	-3817
▁wants	-3818
▁banquo	-3819
▁fairer	-3820
▁imogen	-3821
▁island	-3822
▁observ	-3823
▁quench	-3824
▁smiles	-3825
▁surely	-3826
▁beloved	-3827
▁capitol	-3828
▁favours	-3829
▁garland	-3830
▁orlando	-3831
▁passing	-3832
▁privile	-3833
▁tarquin	-3834
▁vantage	-3835
▁willing	-3836
▁deceived	-3837
▁language	-3838
▁midnight	-3839
▁monument	-3840
▁promised	-3841
▁challenge	-3842
▁companion	-3843
▁obedience	-3844
▁pleasures	-3845
▁acquainted	-3846
bow	-3847
can	-3848
hem	-3849
net	-3850
uce	-3851
ored	-3852
this	-3853
uted	-3854
vish	-3855
▁bud	-3856
▁ful	-3857
▁laws	-3858
▁lent	-3859
▁nice	-3860
▁pock	-3861
▁shun	-3862
▁spar	-3863
▁sple	-3864
▁abhor	-3865
▁ariel	-3866
▁arise	-3867
▁began	-3868
▁belly	-3869
▁cares	-3870
▁chase	-3871
▁mayor	-3872
▁relig	-3873
▁sides	-3874
natural	-3875
obarbus	-3876
▁advise	-3877
▁afraid	-3878
▁arrest	-3879
▁barren	-3880
▁belike	-3881
▁bounty	-3882
▁dagger	-3883
▁hubert	-3884
▁intell	-3885
▁marina	-3886
▁oxford	-3887
▁prayer	-3888
▁prodig	-3889
▁revolt	-3890
▁robert	-3891
▁sleeps	-3892
▁thisbe	-3893
▁travel	-3894
moreland	-3895
▁clothes	-3896
▁defence	-3897
▁destroy	-3898
▁enforce	-3899
▁hanging	-3900
▁laertes	-3901
▁lucrece	-3902
▁neglect	-3903
▁torment	-3904
▁wronged	-3905
▁judgment	-3906
▁merchant	-3907
▁ignorance	-3908
▁undertake	-3909
▁banishment	-3910
▁winchester	-3911
▁westmoreland	-3912
jo	-3913
avi	-3914
enc	-3915
sin	-3916
ency	-3917
llen	-3918
look	-3919
pass	-3920
phew	-3921
rift	-3922
sequ	-3923
some	-3924
▁lep	-3925
▁nob	-3926
▁pad	-3927
▁wre	-3928
avish	-3929
bours	-3930
▁capt	-3931
▁cell	-3932
▁coff	-3933
▁lamb	-3934
▁mill	-3935
▁ripe	-3936
▁stan	-3937
▁susp	-3938
▁sway	-3939
▁worn	-3940
▁yond	-3941
bishop	-3942
derigo	-3943
itable	-3944
▁amiss	-3945
▁craft	-3946
▁elder	-3947
▁examp	-3948
▁gaunt	-3949
▁harsh	-3950
▁impat	-3951
▁liest	-3952
▁peers	-3953
▁stage	-3954
▁stays	-3955
▁stoop	-3956
▁determ	-3957
▁devils	-3958
▁giving	-3959
▁hardly	-3960
▁inward	-3961
▁kisses	-3962
▁knaves	-3963
▁nephew	-3964
▁rebell	-3965
▁reckon	-3966
▁strain	-3967
▁temple	-3968
▁wither	-3969
▁dignity	-3970
▁eternal	-3971
▁hateful	-3972
▁mistake	-3973
▁pisanio	-3974
▁serving	-3975
▁thereof	-3976
▁whisper	-3977
▁antiphol	-3978
▁petition	-3979
▁roderigo	-3980
▁stronger	-3981
▁villainy	-3982
▁enobarbus	-3983
▁reverence	-3984
▁satisfied	-3985
▁substance	-3986
▁archbishop	-3987
▁henceforth	-3988
▁displeasure	-3989
za	-3990
acy	-3991
ded	-3992
pet	-3993
riv	-3994
bast	-3995
held	-3996
ldom	-3997
spur	-3998
▁dow	-3999
▁gle	-4000
▁ink	-4001
▁mow	-4002
▁nun	-4003
▁vii	-4004
otted	-4005
verse	-4006
▁also	-4007
▁cool	-4008
▁decl	-4009
▁drew	-4010
▁hugh	-4011
▁ingr	-4012
▁rhym	-4013
▁robb	-4014
▁subd	-4015
▁wolf	-4016
beline	-4017
ension	-4018
fellow	-4019
▁abide	-4020
▁cates	-4021
▁couch	-4022
▁decay	-4023
▁greek	-4024
▁joint	-4025
▁marks	-4026
▁sends	-4027
▁wrest	-4028
▁accuse	-4029
▁gather	-4030
▁months	-4031
▁mouths	-4032
▁pieces	-4033
▁places	-4034
▁pursue	-4035
▁redeem	-4036
▁reward	-4037
▁rotten	-4038
▁secure	-4039
▁strive	-4040
▁stroke	-4041
▁subtle	-4042
▁woeful	-4043
▁alexand	-4044
▁apparel	-4045
▁benefit	-4046
▁concern	-4047
▁cuckold	-4048
▁fairies	-4049
▁appetite	-4050
▁attended	-4051
▁friendly	-4052
▁standing	-4053
▁troubled	-4054
▁unworthy	-4055
▁whoreson	-4056
▁wondrous	-4057
▁unnatural	-4058
▁antipholus	-4059
,’	-4060
ov	-4061
ais	-4062
ica	-4063
isp	-4064
ope	-4065
ubb	-4066
cles	-4067
geon	-4068
glas	-4069
idus	-4070
ille	-4071
inus	-4072
lyss	-4073
outs	-4074
owne	-4075
prus	-4076
ripp	-4077
▁bay	-4078
▁cym	-4079
▁ire	-4080
▁lip	-4081
▁lun	-4082
▁mov	-4083
aries	-4084
light	-4085
ously	-4086
▁corp	-4087
▁grum	-4088
▁isle	-4089
▁lock	-4090
▁phoe	-4091
▁pomp	-4092
▁sirs	-4093
▁tame	-4094
▁tide	-4095
▁wail	-4096
leness	-4097
lysses	-4098
▁avoid	-4099
▁drums	-4100
▁injur	-4101
▁lusty	-4102
▁nobly	-4103
▁shift	-4104
▁signs	-4105
▁weeps	-4106
▁welsh	-4107
▁combat	-4108
▁cyprus	-4109
▁grieve	-4110
▁higher	-4111
▁kindly	-4112
▁nobles	-4113
▁rivers	-4114
▁senate	-4115
▁taking	-4116
▁trojan	-4117
▁wishes	-4118
▁yester	-4119
▁banquet	-4120
▁bravely	-4121
▁crowned	-4122
▁douglas	-4123
▁freedom	-4124
▁grecian	-4125
▁remains	-4126
▁stanley	-4127
▁tremble	-4128
▁ulysses	-4129
▁commonwe	-4130
▁jealousy	-4131
▁sentence	-4132
▁ambitious	-4133
▁commanded	-4134
▁afterwards	-4135
▁instrument	-4136
▁acquaintance	-4137
▁entertainment	-4138
zz	-4139
”?	-4140
▁2	-4141
ped	-4142
rif	-4143
son	-4144
you	-4145
aine	-4146
ints	-4147
mong	-4148
omin	-4149
ught	-4150
▁fif	-4151
▁nim	-4152
▁sho	-4153
▁soc	-4154
▁sup	-4155
celet	-4156
cules	-4157
emper	-4158
eneas	-4159
faced	-4160
ianus	-4161
▁bite	-4162
▁cade	-4163
▁gait	-4164
▁grew	-4165
▁ling	-4166
▁peas	-4167
▁perf	-4168
▁trim	-4169
▁urge	-4170
▁yell	-4171
upiter	-4172
▁drive	-4173
▁glove	-4174
▁human	-4175
▁saucy	-4176
▁sings	-4177
▁slept	-4178
▁stamp	-4179
▁stern	-4180
▁thorn	-4181
▁behavi	-4182
▁charac	-4183
▁consul	-4184
▁crying	-4185
▁height	-4186
▁served	-4187
▁serves	-4188
▁showed	-4189
▁silent	-4190
▁stream	-4191
▁strife	-4192
▁tailor	-4193
▁tricks	-4194
▁condemn	-4195
▁descend	-4196
▁envious	-4197
▁farther	-4198
▁handker	-4199
▁lepidus	-4200
▁looking	-4201
▁smiling	-4202
▁special	-4203
▁travell	-4204
▁tyranny	-4205
▁wounded	-4206
▁courtier	-4207
▁hercules	-4208
▁hereford	-4209
▁malvolio	-4210
▁menenius	-4211
▁murderer	-4212
▁nobility	-4213
▁pleasant	-4214
▁cymbeline	-4215
▁falsehood	-4216
▁miserable	-4217
▁necessity	-4218
▁willingly	-4219
▁difference	-4220
▁impossible	-4221
▁possession	-4222
off	-4223
sey	-4224
umn	-4225
▁ol	-4226
erle	-4227
ized	-4228
oten	-4229
scri	-4230
▁dor	-4231
▁gri	-4232
▁inh	-4233
▁oak	-4234
▁rev	-4235
▁chid	-4236
▁curr	-4237
▁hall	-4238
▁knit	-4239
▁lift	-4240
▁luck	-4241
▁sets	-4242
▁sins	-4243
▁test	-4244
▁whip	-4245
▁yoke	-4246
master	-4247
▁asham	-4248
▁blown	-4249
▁books	-4250
▁dress	-4251
▁ended	-4252
▁exper	-4253
▁fifth	-4254
▁plays	-4255
▁remor	-4256
▁scept	-4257
▁seize	-4258
▁thers	-4259
bastian	-4260
▁aeneas	-4261
▁afford	-4262
▁beheld	-4263
▁breaks	-4264
▁gently	-4265
▁keeper	-4266
▁senses	-4267
▁shrewd	-4268
▁spread	-4269
▁terror	-4270
▁unfold	-4271
▁berowne	-4272
▁contain	-4273
▁feeling	-4274
▁jupiter	-4275
▁passage	-4276
▁stretch	-4277
▁venture	-4278
▁wedding	-4279
▁windsor	-4280
▁answered	-4281
▁charmian	-4282
▁cominius	-4283
▁complain	-4284
▁deserved	-4285
▁deserves	-4286
▁instruct	-4287
▁persuade	-4288
▁purposes	-4289
▁renowned	-4290
▁sebastian	-4291
▁thersites	-4292
▁alexandria	-4293
▁enterprise	-4294
▁perfection	-4295
ds	-4296
▁10	-4297
▁et	-4298
▁ju	-4299
ella	-4300
fold	-4301
just	-4302
tled	-4303
urio	-4304
wife	-4305
▁cou	-4306
anced	-4307
kedom	-4308
ouses	-4309
rison	-4310
▁bank	-4311
▁bore	-4312
▁coat	-4313
▁dame	-4314
▁gild	-4315
▁mask	-4316
▁mult	-4317
▁obsc	-4318
▁paul	-4319
▁perd	-4320
▁sine	-4321
▁syra	-4322
▁task	-4323
▁undo	-4324
action	-4325
formed	-4326
illing	-4327
▁alike	-4328
▁antio	-4329
▁clean	-4330
▁coron	-4331
▁enfor	-4332
▁exped	-4333
▁frail	-4334
▁goths	-4335
▁guild	-4336
▁hears	-4337
▁italy	-4338
▁padua	-4339
▁petty	-4340
▁price	-4341
▁steep	-4342
▁tooth	-4343
▁venus	-4344
▁wills	-4345
▁befall	-4346
▁breach	-4347
▁collat	-4348
▁dissem	-4349
▁feeble	-4350
▁marvel	-4351
▁pocket	-4352
▁remove	-4353
▁slaves	-4354
▁throng	-4355
▁thurio	-4356
▁amongst	-4357
▁catesby	-4358
▁conspir	-4359
▁dukedom	-4360
▁earthly	-4361
▁humours	-4362
▁provide	-4363
▁whereon	-4364
▁whipped	-4365
▁cordelia	-4366
▁increase	-4367
▁pandarus	-4368
▁purchase	-4369
▁committed	-4370
▁otherwise	-4371
▁shoulders	-4372
▁discontent	-4373
!’	-4374
do	-4375
aus	-4376
ese	-4377
gon	-4378
how	-4379
mio	-4380
oph	-4381
par	-4382
pul	-4383
uke	-4384
vet	-4385
aped	-4386
kind	-4387
mant	-4388
vest	-4389
▁ado	-4390
▁afe	-4391
▁dol	-4392
▁fed	-4393
▁fox	-4394
▁lor	-4395
▁spl	-4396
▁unm	-4397
erous	-4398
icion	-4399
stern	-4400
umpet	-4401
▁adam	-4402
▁dise	-4403
▁eros	-4404
▁feat	-4405
▁flat	-4406
▁load	-4407
▁mile	-4408
▁milk	-4409
▁pawn	-4410
▁rust	-4411
▁slay	-4412
▁slew	-4413
▁toil	-4414
▁wept	-4415
▁whit	-4416
iously	-4417
▁accus	-4418
▁assem	-4419
▁athen	-4420
▁belie	-4421
▁clock	-4422
▁crest	-4423
▁error	-4424
▁groom	-4425
▁immed	-4426
▁milan	-4427
▁regan	-4428
▁roses	-4429
▁siege	-4430
▁token	-4431
▁towns	-4432
▁wrack	-4433
▁wrink	-4434
chamber	-4435
▁angels	-4436
▁curses	-4437
▁gremio	-4438
▁league	-4439
▁sacrif	-4440
▁seemed	-4441
▁wander	-4442
▁waters	-4443
▁wisely	-4444
▁antioch	-4445
▁barnard	-4446
▁carried	-4447
▁costard	-4448
▁discret	-4449
▁dismiss	-4450
▁monarch	-4451
▁players	-4452
▁redress	-4453
▁swallow	-4454
▁torture	-4455
▁absolute	-4456
▁continue	-4457
▁everyone	-4458
▁prepared	-4459
▁scotland	-4460
▁bassianus	-4461
▁confusion	-4462
▁discharge	-4463
▁suspicion	-4464
▁messengers	-4465
▁circumstance	-4466
),	-4467
eg	-4468
èd	-4469
▁8	-4470
amb	-4471
ann	-4472
god	-4473
rid	-4474
çon	-4475
▁11	-4476
asca	-4477
body	-4478
clus	-4479
illy	-4480
mark	-4481
oard	-4482
wall	-4483
▁alc	-4484
▁bon	-4485
▁gid	-4486
▁key	-4487
▁oce	-4488
▁orn	-4489
▁tum	-4490
▁vul	-4491
blood	-4492
celle	-4493
enton	-4494
ickle	-4495
olyta	-4496
otion	-4497
place	-4498
tered	-4499
▁blot	-4500
▁dove	-4501
▁gaze	-4502
▁hipp	-4503
▁ming	-4504
▁misc	-4505
▁pace	-4506
▁rate	-4507
▁ward	-4508
asting	-4509
mantus	-4510
ubborn	-4511
▁bread	-4512
▁casca	-4513
▁cloak	-4514
▁corre	-4515
▁daily	-4516
▁innoc	-4517
▁invis	-4518
▁mould	-4519
▁provo	-4520
▁reach	-4521
▁shook	-4522
▁shown	-4523
▁suits	-4524
▁aboard	-4525
▁absent	-4526
▁advent	-4527
▁choler	-4528
▁cloten	-4529
▁graves	-4530
▁immort	-4531
▁naples	-4532
▁nestor	-4533
▁perpet	-4534
▁receiv	-4535
▁recomp	-4536
▁savage	-4537
▁seldom	-4538
▁spleen	-4539
▁theirs	-4540
▁thrown	-4541
▁troops	-4542
▁unjust	-4543
▁visage	-4544
▁advised	-4545
▁feather	-4546
▁furnish	-4547
▁needful	-4548
▁observe	-4549
▁pucelle	-4550
▁reading	-4551
▁serpent	-4552
▁steward	-4553
▁strikes	-4554
▁suppose	-4555
▁written	-4556
▁contract	-4557
▁directly	-4558
▁faithful	-4559
▁heartily	-4560
▁interest	-4561
▁stubborn	-4562
▁withdraw	-4563
▁youthful	-4564
▁immediate	-4565
▁katherine	-4566
▁privilege	-4567
▁handkerchief	-4568
boy	-4569
erc	-4570
ico	-4571
irt	-4572
lif	-4573
oon	-4574
ris	-4575
urb	-4576
▁je	-4577
ably	-4578
enzo	-4579
eril	-4580
grim	-4581
ione	-4582
lain	-4583
lied	-4584
port	-4585
rust	-4586
utch	-4587
▁alt	-4588
▁aum	-4589
▁bot	-4590
▁cho	-4591
▁err	-4592
▁ger	-4593
▁kin	-4594
▁lat	-4595
▁mak	-4596
▁nar	-4597
▁sty	-4598
aming	-4599
ative	-4600
aving	-4601
ossom	-4602
ullus	-4603
uring	-4604
ursed	-4605
▁bert	-4606
▁blue	-4607
▁davy	-4608
▁defy	-4609
▁inch	-4610
▁jail	-4611
▁jess	-4612
▁knot	-4613
▁laun	-4614
▁rece	-4615
▁scur	-4616
▁spit	-4617
roclus	-4618
uction	-4619
▁apoll	-4620
▁bohem	-4621
▁burst	-4622
▁compe	-4623
▁dozen	-4624
▁fares	-4625
▁forty	-4626
▁hairs	-4627
▁leads	-4628
▁lying	-4629
▁merri	-4630
▁newly	-4631
▁poins	-4632
▁restr	-4633
▁rouse	-4634
▁saved	-4635
▁shade	-4636
▁shoot	-4637
▁spurn	-4638
▁sting	-4639
▁veins	-4640
▁beside	-4641
▁conven	-4642
▁depend	-4643
▁design	-4644
▁exeunt	-4645
▁famous	-4646
▁fields	-4647
▁grumio	-4648
▁hounds	-4649
▁jewels	-4650
▁nights	-4651
▁notice	-4652
▁passed	-4653
▁rebels	-4654
▁refuse	-4655
▁shield	-4656
▁weapon	-4657
▁wholes	-4658
▁yellow	-4659
▁aumerle	-4660
▁bertram	-4661
▁commons	-4662
▁couldst	-4663
▁disease	-4664
▁journey	-4665
▁lorenzo	-4666
▁message	-4667
▁parting	-4668
▁praises	-4669
▁remorse	-4670
▁resolve	-4671
▁shadows	-4672
▁stained	-4673
▁weather	-4674
▁younger	-4675
▁audience	-4676
▁conquest	-4677
▁countess	-4678
▁exchange	-4679
▁immortal	-4680
▁learning	-4681
▁revenged	-4682
▁shoulder	-4683
▁apemantus	-4684
▁appointed	-4685
▁beholding	-4686
▁disguised	-4687
▁hippolyta	-4688
▁invention	-4689
▁invisible	-4690
▁patroclus	-4691
▁conference	-4692
▁imagination	-4693
ug	-4694
▁5	-4695
aws	-4696
cle	-4697
lay	-4698
▁ug	-4699
aken	-4700
bray	-4701
hrew	-4702
iano	-4703
iond	-4704
ivia	-4705
maid	-4706
tles	-4707
▁jun	-4708
▁non	-4709
▁oph	-4710
▁pee	-4711
▁rib	-4712
▁vin	-4713
arded	-4714
avour	-4715
emned	-4716
ençon	-4717
onius	-4718
ooked	-4719
▁deaf	-4720
▁palm	-4721
▁peer	-4722
▁push	-4723
▁reve	-4724
▁term	-4725
▁tres	-4726
▁tyre	-4727
▁check	-4728
▁draws	-4729
▁fifty	-4730
▁fleet	-4731
▁goose	-4732
▁lines	-4733
▁moral	-4734
▁ocean	-4735
▁reser	-4736
▁seeks	-4737
▁steph	-4738
▁threw	-4739
▁trees	-4740
▁verse	-4741
▁advers	-4742
▁aspect	-4743
▁beasts	-4744
▁easily	-4745
▁forced	-4746
▁greeks	-4747
▁lesser	-4748
▁likely	-4749
▁nation	-4750
▁nimble	-4751
▁nought	-4752
▁olivia	-4753
▁overth	-4754
iondello	-4755
▁alençon	-4756
▁beshrew	-4757
▁compare	-4758
▁deceive	-4759
▁drowned	-4760
▁example	-4761
▁happily	-4762
▁jessica	-4763
▁mowbray	-4764
▁ophelia	-4765
▁peevish	-4766
▁pilgrim	-4767
▁sceptre	-4768
▁scratch	-4769
▁addition	-4770
▁athenian	-4771
▁chastity	-4772
▁distance	-4773
▁governor	-4774
▁imprison	-4775
▁prologue	-4776
▁prospero	-4777
▁resolved	-4778
▁services	-4779
▁strongly	-4780
▁supposed	-4781
▁trespass	-4782
▁assurance	-4783
▁contented	-4784
▁launcelet	-4785
▁lightning	-4786
▁wholesome	-4787
▁discretion	-4788
▁satisfaction	-4789
po	-4790
uc	-4791
▁4	-4792
amy	-4793
thy	-4794
clam	-4795
iron	-4796
ival	-4797
iver	-4798
lets	-4799
time	-4800
uish	-4801
▁ale	-4802
▁dum	-4803
▁haw	-4804
▁mat	-4805
▁ope	-4806
▁rug	-4807
▁spy	-4808
▁suc	-4809
▁wot	-4810
agues	-4811
ially	-4812
inate	-4813
quire	-4814
shine	-4815
which	-4816
▁anti	-4817
▁appl	-4818
▁beau	-4819
▁beds	-4820
▁beth	-4821
▁cand	-4822
▁joys	-4823
▁pate	-4824
▁ruff	-4825
▁slee	-4826
▁stro	-4827
▁sung	-4828
centio	-4829
▁begun	-4830
▁corse	-4831
▁curts	-4832
▁desir	-4833
▁eagle	-4834
▁estim	-4835
▁giddy	-4836
▁haunt	-4837
▁helic	-4838
▁lance	-4839
▁maria	-4840
▁nails	-4841
▁penny	-4842
▁robin	-4843
▁sembl	-4844
▁sixth	-4845
▁space	-4846
▁spoil	-4847
▁steps	-4848
▁strew	-4849
▁theme	-4850
▁afeard	-4851
▁ancest	-4852
▁andrew	-4853
▁apollo	-4854
▁basket	-4855
▁caught	-4856
▁deceit	-4857
▁deserv	-4858
▁fourth	-4859
▁garter	-4860
▁isabel	-4861
▁joyful	-4862
▁lights	-4863
▁parley	-4864
▁played	-4865
▁rescue	-4866
▁shapes	-4867
▁supply	-4868
▁actions	-4869
▁approve	-4870
▁cowards	-4871
▁effects	-4872
▁fearing	-4873
▁grandam	-4874
▁growing	-4875
▁inherit	-4876
▁kindred	-4877
▁liberal	-4878
▁prophet	-4879
▁sadness	-4880
▁surfeit	-4881
▁sweetly	-4882
▁whereto	-4883
▁accident	-4884
▁forswear	-4885
▁gratiano	-4886
▁meantime	-4887
▁octavius	-4888
▁polonius	-4889
▁preserve	-4890
▁provided	-4891
▁returned	-4892
▁strumpet	-4893
▁titinius	-4894
▁behaviour	-4895
▁biondello	-4896
▁extremity	-4897
▁physician	-4898
▁conditions	-4899
▁chamberlain	-4900
:—	-4901
me	-4902
dst	-4903
owl	-4904
upt	-4905
adle	-4906
aker	-4907
issa	-4908
noon	-4909
sell	-4910
sion	-4911
umes	-4912
▁ann	-4913
▁cer	-4914
▁hue	-4915
asing	-4916
erdin	-4917
iable	-4918
imely	-4919
raced	-4920
▁adon	-4921
▁aged	-4922
▁fret	-4923
▁helm	-4924
▁hole	-4925
▁macd	-4926
▁muse	-4927
▁park	-4928
▁tied	-4929
▁ugly	-4930
▁vass	-4931
▁week	-4932
▁wipe	-4933
twould	-4934
▁burns	-4935
▁clerk	-4936
▁climb	-4937
▁divor	-4938
▁edgar	-4939
▁fever	-4940
▁fixed	-4941
▁flame	-4942
▁frank	-4943
▁hated	-4944
▁likes	-4945
▁rebel	-4946
▁score	-4947
▁ships	-4948
▁solic	-4949
▁stout	-4950
▁troop	-4951
▁value	-4952
▁venom	-4953
▁warri	-4954
▁whate	-4955
enstern	-4956
▁branch	-4957
▁breeds	-4958
▁compar	-4959
▁destru	-4960
▁feared	-4961
▁fenton	-4962
▁infant	-4963
▁interp	-4964
▁jaques	-4965
▁justly	-4966
▁livery	-4967
▁mutiny	-4968
▁points	-4969
▁porter	-4970
▁preced	-4971
▁ragged	-4972
▁starve	-4973
▁titles	-4974
▁wished	-4975
erdinand	-4976
▁bohemia	-4977
▁butcher	-4978
▁conceal	-4979
▁denmark	-4980
▁goneril	-4981
▁hotspur	-4982
▁ireland	-4983
▁miracle	-4984
▁nerissa	-4985
▁octavia	-4986
▁process	-4987
▁proport	-4988
▁removed	-4989
▁retreat	-4990
▁running	-4991
▁thereby	-4992
▁throats	-4993
▁working	-4994
▁yielded	-4995
clamation	-4996
▁bleeding	-4997
▁blushing	-4998
▁commands	-4999
▁contents	-5000
▁reproach	-5001
▁untimely	-5002
▁afternoon	-5003
▁pronounce	-5004
▁qualities	-5005
▁vincentio	-5006
▁worcester	-5007
▁government	-5008
▁proceeding	-5009
▁recompense	-5010
▁guildenstern	-5011
kn	-5012
rt	-5013
▁3	-5014
▁6	-5015
▁9	-5016
lam	-5017
rel	-5018
why	-5019
anks	-5020
bear	-5021
bian	-5022
clif	-5023
fast	-5024
rase	-5025
rian	-5026
teen	-5027
thou	-5028
▁ago	-5029
▁bru	-5030
▁cin	-5031
▁mag	-5032
▁mor	-5033
▁mud	-5034
▁net	-5035
▁obl	-5036
▁rej	-5037
▁sue	-5038
▁tig	-5039
illed	-5040
inary	-5041
inous	-5042
ivity	-5043
mouth	-5044
osoph	-5045
rippa	-5046
stone	-5047
▁bere	-5048
▁braw	-5049
▁coin	-5050
▁date	-5051
▁defe	-5052
▁ende	-5053
▁game	-5054
▁keen	-5055
▁liqu	-5056
▁murd	-5057
▁peep	-5058
▁pull	-5059
▁rend	-5060
▁soil	-5061
▁thin	-5062
▁vols	-5063
cliffe	-5064
father	-5065
headed	-5066
ipping	-5067
ixenes	-5068
▁brown	-5069
▁event	-5070
▁front	-5071
▁funer	-5072
▁guide	-5073
▁hatch	-5074
▁lower	-5075
▁manly	-5076
▁marsh	-5077
▁moves	-5078
▁nymph	-5079
▁resem	-5080
▁scour	-5081
▁scrup	-5082
▁sland	-5083
▁straw	-5084
▁works	-5085
ication	-5086
▁amazed	-5087
▁attain	-5088
▁barbar	-5089
▁canker	-5090
▁houses	-5091
▁injury	-5092
▁jailer	-5093
▁lovell	-5094
▁messal	-5095
▁opport	-5096
▁philip	-5097
▁promis	-5098
▁proved	-5099
▁shines	-5100
▁swears	-5101
▁verona	-5102
▁censure	-5103
▁conclud	-5104
▁curtain	-5105
▁foreign	-5106
▁guarded	-5107
▁kissing	-5108
▁macduff	-5109
▁manhood	-5110
▁offices	-5111
▁quarter	-5112
▁secrets	-5113
▁sisters	-5114
▁sitting	-5115
▁sounded	-5116
▁wenches	-5117
conbridge	-5118
▁breaking	-5119
▁compound	-5120
▁conclude	-5121
▁cornwall	-5122
▁cressida	-5123
▁enforced	-5124
▁honoured	-5125
▁kingdoms	-5126
▁rosaline	-5127
▁apprehend	-5128
▁condemned	-5129
▁ferdinand	-5130
▁katherina	-5131
▁philosoph	-5132
▁polixenes	-5133
▁ratcliffe	-5134
▁rebellion	-5135
▁strangely	-5136
▁conclusion	-5137
▁destruction	-5138
▁instruments	-5139
▁preparation	-5140
▁commonwealth	-5141
▁7	-5142
asp	-5143
bre	-5144
vir	-5145
alus	-5146
aunt	-5147
chor	-5148
icle	-5149
lete	-5150
lorn	-5151
mony	-5152
rand	-5153
upon	-5154
▁ben	-5155
▁cel	-5156
▁cop	-5157
▁exh	-5158
▁lin	-5159
▁shy	-5160
▁sly	-5161
aniel	-5162
arsus	-5163
shire	-5164
ulous	-5165
▁alto	-5166
▁blaz	-5167
▁busy	-5168
▁chat	-5169
▁chin	-5170
▁dote	-5171
▁lark	-5172
▁lays	-5173
▁mant	-5174
▁mich	-5175
▁orch	-5176
▁pays	-5177
▁pite	-5178
▁skin	-5179
▁sugg	-5180
▁turk	-5181
▁wore	-5182
▁zeal	-5183
giving	-5184
▁afoot	-5185
▁aloud	-5186
▁beget	-5187
▁curst	-5188
▁everl	-5189
▁fount	-5190
▁frost	-5191
▁grass	-5192
▁kills	-5193
▁lions	-5194
▁scand	-5195
▁silly	-5196
▁stole	-5197
▁titan	-5198
▁walks	-5199
▁bosoms	-5200
▁closet	-5201
▁eldest	-5202
▁eleven	-5203
▁guards	-5204
▁herein	-5205
▁liking	-5206
▁merely	-5207
▁miscar	-5208
▁phrase	-5209
▁repose	-5210
▁resist	-5211
▁tarsus	-5212
▁trifle	-5213
▁agrippa	-5214
▁beguile	-5215
▁carries	-5216
▁fantast	-5217
▁forsake	-5218
▁granted	-5219
▁imagine	-5220
▁matters	-5221
▁mothers	-5222
▁rejoice	-5223
▁requite	-5224
▁satisfy	-5225
▁scatter	-5226
▁succeed	-5227
▁suffice	-5228
▁telling	-5229
▁accursed	-5230
▁breeding	-5231
▁careless	-5232
▁ceremony	-5233
▁comforts	-5234
▁conceive	-5235
▁counsell	-5236
▁distress	-5237
▁florence	-5238
▁grievous	-5239
▁hermione	-5240
▁instance	-5241
▁laughter	-5242
▁obedient	-5243
▁reignier	-5244
▁sweetest	-5245
▁terrible	-5246
▁thankful	-5247
▁touching	-5248
▁weakness	-5249
▁attendant	-5250
▁perpetual	-5251
▁senseless	-5252
▁virginity	-5253
▁altogether	-5254
▁ambassador	-5255
▁resolution	-5256
▁expectation	-5257
▁x	-5258
cet	-5259
ita	-5260
kne	-5261
mor	-5262
oft	-5263
uts	-5264
▁ce	-5265
ales	-5266
culo	-5267
good	-5268
hand	-5269
itic	-5270
love	-5271
raft	-5272
same	-5273
ties	-5274
when	-5275
▁bul	-5276
▁ebb	-5277
▁fem	-5278
▁hom	-5279
▁jer	-5280
▁lap	-5281
▁len	-5282
▁vap	-5283
achel	-5284
ainty	-5285
arged	-5286
arius	-5287
asted	-5288
ening	-5289
entle	-5290
ently	-5291
illon	-5292
olles	-5293
osing	-5294
rantz	-5295
stain	-5296
▁acts	-5297
▁dian	-5298
▁dine	-5299
▁fawn	-5300
▁hare	-5301
▁path	-5302
▁pole	-5303
▁prec	-5304
▁reco	-5305
▁repr	-5306
▁riot	-5307
▁trin	-5308
▁unre	-5309
ancing	-5310
ndsire	-5311
queath	-5312
soever	-5313
▁alleg	-5314
▁amend	-5315
▁apace	-5316
▁asked	-5317
▁babes	-5318
▁beats	-5319
▁bragg	-5320
▁cheap	-5321
▁clapp	-5322
▁cleon	-5323
▁dowry	-5324
▁evils	-5325
▁exile	-5326
▁flint	-5327
▁forms	-5328
▁gower	-5329
▁lodge	-5330
▁manif	-5331
▁metal	-5332
▁patch	-5333
▁rhyme	-5334
▁schol	-5335
▁shout	-5336
▁smoke	-5337
▁spark	-5338
▁spect	-5339
▁split	-5340
▁stale	-5341
▁vanqu	-5342
▁adonis	-5343
▁bachel	-5344
▁beware	-5345
▁craves	-5346
▁dainty	-5347
▁dearer	-5348
▁deaths	-5349
▁defect	-5350
▁descri	-5351
▁hunger	-5352
▁infirm	-5353
▁mettle	-5354
▁obtain	-5355
▁phoebe	-5356
▁pierce	-5357
▁rapier	-5358
▁ravish	-5359
▁rosenc	-5360
▁sinews	-5361
▁softly	-5362
▁strict	-5363
▁suffic	-5364
▁suitor	-5365
▁willow	-5366
standing	-5367
▁bidding	-5368
▁cherish	-5369
▁contend	-5370
▁current	-5371
▁discord	-5372
▁doublet	-5373
▁forlorn	-5374
▁harbour	-5375
▁holding	-5376
▁killing	-5377
▁lodging	-5378
▁marshal	-5379
▁marvell	-5380
▁messala	-5381
▁mightst	-5382
▁natures	-5383
▁piteous	-5384
▁pitiful	-5385
▁publius	-5386
▁roaring	-5387
▁scandal	-5388
▁smother	-5389
▁society	-5390
▁turning	-5391
▁bequeath	-5392
▁corioles	-5393
▁delicate	-5394
▁diomedes	-5395
▁distract	-5396
▁forehead	-5397
▁mistrust	-5398
▁nobleman	-5399
▁offences	-5400
▁opportun	-5401
▁parolles	-5402
▁promises	-5403
▁youngest	-5404
▁certainly	-5405
▁distemper	-5406
▁household	-5407
▁trembling	-5408
▁yesterday	-5409
▁countryman	-5410
▁rosencrantz	-5411
lo	-5412
▁”	-5413
ael	-5414
ext	-5415
few	-5416
ibi	-5417
key	-5418
not	-5419
aged	-5420
anor	-5421
gers	-5422
ived	-5423
liza	-5424
▁box	-5425
▁cox	-5426
▁dat	-5427
▁dil	-5428
▁enm	-5429
▁enr	-5430
▁fan	-5431
▁hab	-5432
▁hec	-5433
▁jot	-5434
▁mas	-5435
▁nod	-5436
▁rar	-5437
▁rut	-5438
▁tax	-5439
▁voy	-5440
▁wet	-5441
▁yon	-5442
lling	-5443
unken	-5444
▁aunt	-5445
▁crom	-5446
▁diet	-5447
▁doll	-5448
▁fold	-5449
▁goss	-5450
▁grim	-5451
▁hist	-5452
▁joan	-5453
▁juno	-5454
▁moan	-5455
▁owes	-5456
▁pant	-5457
▁pent	-5458
▁rear	-5459
▁roof	-5460
▁silk	-5461
▁simp	-5462
▁slip	-5463
keness	-5464
ndower	-5465
orough	-5466
▁accom	-5467
▁beams	-5468
▁begot	-5469
▁boots	-5470
▁broad	-5471
▁burnt	-5472
▁chest	-5473
▁coast	-5474
▁cudge	-5475
▁eliza	-5476
▁flout	-5477
▁imped	-5478
▁locks	-5479
▁lucio	-5480
▁medic	-5481
▁noted	-5482
▁parce	-5483
▁pearl	-5484
▁prime	-5485
▁river	-5486
▁sadly	-5487
▁scope	-5488
▁share	-5489
▁thane	-5490
▁tried	-5491
▁wheel	-5492
ibiades	-5493
itation	-5494
▁abused	-5495
▁bottle	-5496
▁consum	-5497
▁deceiv	-5498
▁deputy	-5499
▁divide	-5500
▁dorset	-5501
▁hourly	-5502
▁invent	-5503
▁lately	-5504
▁leonat	-5505
▁losing	-5506
▁manage	-5507
▁oracle	-5508
▁resign	-5509
▁safely	-5510
▁scurvy	-5511
▁shores	-5512
▁surrey	-5513
▁survey	-5514
▁thirty	-5515
▁thread	-5516
▁trench	-5517
▁vanish	-5518
▁varlet	-5519
▁wooing	-5520
▁writes	-5521
▁alarums	-5522
▁amorous	-5523
▁beggars	-5524
▁betimes	-5525
▁drunken	-5526
▁dumaine	-5527
▁exclaim	-5528
▁extreme	-5529
▁funeral	-5530
▁hideous	-5531
▁kinsmen	-5532
▁loyalty	-5533
▁michael	-5534
▁orchard	-5535
▁painter	-5536
▁paulina	-5537
▁royalty	-5538
▁serious	-5539
▁shylock	-5540
▁subscri	-5541
▁touched	-5542
▁touches	-5543
▁upright	-5544
▁affright	-5545
▁belarius	-5546
▁concerns	-5547
▁drinking	-5548
▁flattery	-5549
▁handsome	-5550
▁husbands	-5551
▁imperial	-5552
▁likeness	-5553
▁likewise	-5554
▁pleasing	-5555
▁stephano	-5556
▁suffered	-5557
▁trinculo	-5558
▁alexander	-5559
▁breathing	-5560
▁elizabeth	-5561
▁exceeding	-5562
▁innocence	-5563
▁instantly	-5564
▁ministers	-5565
▁musicians	-5566
▁rossillon	-5567
▁semblance	-5568
▁treachery	-5569
▁wonderful	-5570
▁alcibiades	-5571
▁neighbours	-5572
▁treacherous	-5573
▁intelligence	-5574
;—	-5575
adv	-5576
aph	-5577
gen	-5578
ids	-5579
imo	-5580
pec	-5581
ril	-5582
sec	-5583
athe	-5584
atic	-5585
ault	-5586
ayed	-5587
eder	-5588
item	-5589
lies	-5590
room	-5591
sues	-5592
utio	-5593
vity	-5594
yard	-5595
▁ack	-5596
▁bee	-5597
▁inn	-5598
▁pox	-5599
▁rhe	-5600
▁sap	-5601
acles	-5602
elaus	-5603
ontes	-5604
rance	-5605
shall	-5606
there	-5607
ulate	-5608
verty	-5609
▁aust	-5610
▁calf	-5611
▁cent	-5612
▁conv	-5613
▁cook	-5614
▁dion	-5615
▁fact	-5616
▁holl	-5617
▁hush	-5618
▁infl	-5619
▁offe	-5620
▁pest	-5621
▁pine	-5622
▁rack	-5623
▁rene	-5624
▁sher	-5625
▁trip	-5626
▁tush	-5627
artius	-5628
aville	-5629
▁aloft	-5630
▁arriv	-5631
▁backs	-5632
▁bonds	-5633
▁brand	-5634
▁dukes	-5635
▁elbow	-5636
▁feign	-5637
▁fires	-5638
▁level	-5639
▁lewis	-5640
▁liver	-5641
▁ought	-5642
▁outra	-5643
▁recre	-5644
▁rugby	-5645
▁sober	-5646
▁swain	-5647
▁tales	-5648
▁trunk	-5649
▁vault	-5650
▁access	-5651
▁accomp	-5652
▁amends	-5653
▁batter	-5654
▁bounds	-5655
▁burial	-5656
▁commod	-5657
▁conver	-5658
▁devour	-5659
▁discip	-5660
▁dissol	-5661
▁extend	-5662
▁fabian	-5663
▁kingly	-5664
▁madman	-5665
▁mantua	-5666
▁oliver	-5667
▁plight	-5668
▁potent	-5669
▁prompt	-5670
▁raging	-5671
▁riches	-5672
▁rumour	-5673
▁scorns	-5674
▁shrews	-5675
▁traged	-5676
▁unseen	-5677
▁vulgar	-5678
▁appoint	-5679
▁bedford	-5680
▁blossom	-5681
▁bondage	-5682
▁charged	-5683
▁conjure	-5684
▁control	-5685
▁desired	-5686
▁despise	-5687
▁disturb	-5688
▁falling	-5689
▁hunting	-5690
▁intents	-5691
▁leaving	-5692
▁leontes	-5693
▁longing	-5694
▁ourself	-5695
▁peasant	-5696
▁poverty	-5697
▁praised	-5698
▁protect	-5699
▁require	-5700
▁rightly	-5701
▁seeking	-5702
▁setting	-5703
▁superfl	-5704
▁tribute	-5705
▁volsces	-5706
▁wanting	-5707
▁captains	-5708
▁cromwell	-5709
▁diseases	-5710
▁division	-5711
▁elements	-5712
▁fourteen	-5713
▁horrible	-5714
▁marching	-5715
▁mercutio	-5716
▁mourning	-5717
▁murdered	-5718
▁opposite	-5719
▁prodigal	-5720
▁stirring	-5721
▁troubles	-5722
▁collatine	-5723
▁determine	-5724
▁forthwith	-5725
▁glendower	-5726
▁grandsire	-5727
▁helicanus	-5728
▁infection	-5729
▁possessed	-5730
▁strangers	-5731
▁longaville	-5732
▁proportion	-5733
▁prosperous	-5734
▁proclamation	-5735
get	-5736
nes	-5737
non	-5738
pes	-5739
ule	-5740
war	-5741
▁ax	-5742
▁gn	-5743
cuse	-5744
iard	-5745
iban	-5746
iles	-5747
imon	-5748
keep	-5749
osen	-5750
path	-5751
ross	-5752
work	-5753
▁caw	-5754
▁lur	-5755
▁ned	-5756
▁owl	-5757
▁pul	-5758
▁rot	-5759
▁rud	-5760
▁sed	-5761
▁tun	-5762
▁une	-5763
eling	-5764
enced	-5765
ering	-5766
gives	-5767
rence	-5768
rived	-5769
▁abus	-5770
▁dart	-5771
▁deck	-5772
▁dial	-5773
▁eats	-5774
▁exit	-5775
▁expl	-5776
▁eyel	-5777
▁gird	-5778
▁hose	-5779
▁iras	-5780
▁lets	-5781
▁lief	-5782
▁lily	-5783
▁nupt	-5784
▁pupp	-5785
▁sire	-5786
▁sith	-5787
▁swim	-5788
▁vast	-5789
▁vous	-5790
▁wand	-5791
▁weed	-5792
ateful	-5793
▁agree	-5794
▁balth	-5795
▁bliss	-5796
▁diest	-5797
▁exerc	-5798
▁feeds	-5799
▁insol	-5800
▁penit	-5801
▁purge	-5802
▁recon	-5803
▁sayst	-5804
▁shrie	-5805
▁skull	-5806
▁stead	-5807
▁steed	-5808
▁stuck	-5809
▁wager	-5810
▁worms	-5811
▁acknow	-5812
▁bowels	-5813
▁county	-5814
▁coxcom	-5815
▁create	-5816
▁dismal	-5817
▁embass	-5818
▁enmity	-5819
▁escape	-5820
▁frowns	-5821
▁greece	-5822
▁guests	-5823
▁incens	-5824
▁mantle	-5825
▁middle	-5826
▁narrow	-5827
▁pledge	-5828
▁regent	-5829
▁relish	-5830
▁rights	-5831
▁sleeve	-5832
▁stocks	-5833
▁surety	-5834
▁tavern	-5835
▁trusty	-5836
▁unlike	-5837
▁vassal	-5838
▁voyage	-5839
▁waking	-5840
▁ashamed	-5841
▁attends	-5842
▁bethink	-5843
▁briefly	-5844
▁careful	-5845
▁consort	-5846
▁divorce	-5847
▁evening	-5848
▁execute	-5849
▁faction	-5850
▁gallows	-5851
▁grieves	-5852
▁harvest	-5853
▁merrily	-5854
▁notwith	-5855
▁nuptial	-5856
▁perjury	-5857
▁plainly	-5858
▁politic	-5859
▁singing	-5860
▁soundly	-5861
▁strokes	-5862
▁talking	-5863
▁windows	-5864
▁apparent	-5865
▁bachelor	-5866
▁backward	-5867
▁beaufort	-5868
▁confeder	-5869
▁greeting	-5870
▁indiffer	-5871
▁menelaus	-5872
▁painting	-5873
▁powerful	-5874
▁prophesy	-5875
▁stafford	-5876
▁swearing	-5877
▁syracuse	-5878
▁courteous	-5879
▁fortunate	-5880
▁guiltless	-5881
▁impatient	-5882
▁persuaded	-5883
▁allegiance	-5884
▁convenient	-5885
▁estimation	-5886
▁flattering	-5887
▁punishment	-5888
▁sufferance	-5889
▁villainous	-5890
▁everlasting	-5891
▁opportunity	-5892
▁notwithstanding	-5893
_—	-5894
ii	-5895
æs	-5896
arg	-5897
dor	-5898
ida	-5899
say	-5900
val	-5901
icer	-5902
lled	-5903
long	-5904
ping	-5905
side	-5906
then	-5907
vius	-5908
will	-5909
▁esp	-5910
▁gap	-5911
▁ice	-5912
▁ost	-5913
▁pem	-5914
▁pow	-5915
▁reh	-5916
abble	-5917
aints	-5918
alled	-5919
avery	-5920
chery	-5921
horse	-5922
igent	-5923
ptune	-5924
thren	-5925
▁balm	-5926
▁bone	-5927
▁brab	-5928
▁brid	-5929
▁curs	-5930
▁dash	-5931
▁diam	-5932
▁enra	-5933
▁epit	-5934
▁exam	-5935
▁flav	-5936
▁gonz	-5937
▁lads	-5938
▁lame	-5939
▁male	-5940
▁meas	-5941
▁rein	-5942
▁robe	-5943
▁shel	-5944
▁summ	-5945
acious	-5946
aments	-5947
angers	-5948
iments	-5949
ithous	-5950
mongst	-5951
vation	-5952
▁abbey	-5953
▁altar	-5954
▁ashes	-5955
▁brass	-5956
▁carri	-5957
▁champ	-5958
▁cinna	-5959
▁espec	-5960
▁evans	-5961
▁explo	-5962
▁froth	-5963
▁hedge	-5964
▁heirs	-5965
▁infer	-5966
▁miles	-5967
▁notes	-5968
▁pedro	-5969
▁plent	-5970
▁rheum	-5971
▁rites	-5972
▁scape	-5973
▁simpl	-5974
▁slipp	-5975
▁stops	-5976
▁subst	-5977
▁tired	-5978
▁unman	-5979
atitude	-5980
▁albany	-5981
▁audrey	-5982
▁became	-5983
▁cannon	-5984
▁cawdor	-5985
▁charms	-5986
▁chosen	-5987
▁conjur	-5988
▁divers	-5989
▁driven	-5990
▁hungry	-5991
▁indign	-5992
▁infamy	-5993
▁muster	-5994
▁myster	-5995
▁nobody	-5996
▁patric	-5997
▁plains	-5998
▁purple	-5999
▁rogues	-6000
▁scroop	-6001
▁sights	-6002
▁snatch	-6003
▁stolen	-6004
▁thrift	-6005
▁tyrann	-6006
▁vanity	-6007
▁volumn	-6008
▁walter	-6009
▁zounds	-6010
▁citizen	-6011
▁consequ	-6012
▁convers	-6013
▁cruelty	-6014
▁deposed	-6015
▁discipl	-6016
▁dispers	-6017
▁dispose	-6018
▁divided	-6019
▁eleanor	-6020
▁grossly	-6021
▁history	-6022
▁neptune	-6023
▁persons	-6024
▁rutland	-6025
▁sailors	-6026
▁scruple	-6027
▁signify	-6028
▁silvius	-6029
▁slumber	-6030
▁suggest	-6031
▁sustain	-6032
▁swagger	-6033
▁waiting	-6034
▁wearing	-6035
▁bootless	-6036
▁brethren	-6037
▁carriage	-6038
▁corporal	-6039
▁delights	-6040
▁doubtful	-6041
▁election	-6042
▁evermore	-6043
▁injuries	-6044
▁isabella	-6045
▁leonatus	-6046
▁ornament	-6047
▁pembroke	-6048
▁quarrels	-6049
▁sensible	-6050
▁sicinius	-6051
▁swelling	-6052
▁adventure	-6053
▁barbarous	-6054
▁character	-6055
▁conqueror	-6056
▁departure	-6057
▁direction	-6058
▁mischance	-6059
▁murderers	-6060
▁necessary	-6061
▁precedent	-6062
▁reckoning	-6063
▁sacrifice	-6064
▁barnardine	-6065
▁coronation	-6066
▁employment	-6067
▁expedition	-6068
▁experience	-6069
▁remembered	-6070
▁saturninus	-6071
▁shrewsbury	-6072
▁ingratitude	-6073
▁sovereignty	-6074
dr	-6075
je	-6076
vo	-6077
ead	-6078
esu	-6079
fav	-6080
ino	-6081
ops	-6082
▁oh	-6083
alty	-6084
ardy	-6085
peak	-6086
quis	-6087
sick	-6088
stri	-6089
▁arr	-6090
▁aut	-6091
▁axe	-6092
▁aye	-6093
▁cæs	-6094
▁dut	-6095
▁rig	-6096
▁rip	-6097
▁row	-6098
▁rub	-6099
▁sex	-6100
▁sym	-6101
▁wak	-6102
▁wea	-6103
▁wil	-6104
arine	-6105
ctors	-6106
gnant	-6107
ivers	-6108
ooted	-6109
quity	-6110
scape	-6111
sings	-6112
tween	-6113
urity	-6114
▁baby	-6115
▁boat	-6116
▁cran	-6117
▁diff	-6118
▁halt	-6119
▁iach	-6120
▁kath	-6121
▁lewd	-6122
▁mang	-6123
▁pang	-6124
▁sequ	-6125
▁span	-6126
▁stum	-6127
▁vine	-6128
advent	-6129
asions	-6130
estial	-6131
▁added	-6132
▁amity	-6133
▁board	-6134
▁boyet	-6135
▁chose	-6136
▁cozen	-6137
▁crows	-6138
▁disco	-6139
▁dower	-6140
▁drift	-6141
▁flock	-6142
▁goods	-6143
▁harms	-6144
▁hasty	-6145
▁hates	-6146
▁haven	-6147
▁inhab	-6148
▁lungs	-6149
▁mocks	-6150
▁parli	-6151
▁ranks	-6152
▁reply	-6153
▁rises	-6154
▁tents	-6155
▁theft	-6156
▁topas	-6157
▁tutor	-6158
▁whist	-6159
▁woods	-6160
minster	-6161
ursions	-6162
▁appeal	-6163
▁armado	-6164
▁assail	-6165
▁bereft	-6166
▁butter	-6167
▁couple	-6168
▁curtsy	-6169
▁enrich	-6170
▁fallen	-6171
▁female	-6172
▁filthy	-6173
▁gilded	-6174
▁hallow	-6175
▁impart	-6176
▁invite	-6177
▁joints	-6178
▁knocks	-6179
▁ladder	-6180
▁latter	-6181
▁moving	-6182
▁nearer	-6183
▁nobler	-6184
▁offers	-6185
▁parent	-6186
▁patter	-6187
▁pedant	-6188
▁pestil	-6189
▁pitied	-6190
▁salute	-6191
▁sheets	-6192
▁squire	-6193
▁sullen	-6194
▁throws	-6195
▁wolsey	-6196
favoured	-6197
▁address	-6198
▁afflict	-6199
▁answers	-6200
▁article	-6201
▁bargain	-6202
▁beastly	-6203
▁caliban	-6204
▁changed	-6205
▁confine	-6206
▁cornets	-6207
▁enchant	-6208
▁epitaph	-6209
▁escalus	-6210
▁hangman	-6211
▁harmony	-6212
▁iachimo	-6213
▁knowest	-6214
▁lartius	-6215
▁laughed	-6216
▁mankind	-6217
▁milford	-6218
▁mistook	-6219
▁nightly	-6220
▁offered	-6221
▁playing	-6222
▁plucked	-6223
▁restore	-6224
▁scholar	-6225
▁settled	-6226
▁support	-6227
▁tribune	-6228
▁undergo	-6229
▁anointed	-6230
▁beauties	-6231
▁bestowed	-6232
▁devotion	-6233
▁executed	-6234
▁harmless	-6235
▁lawrence	-6236
▁lucilius	-6237
▁medicine	-6238
▁merciful	-6239
▁presents	-6240
▁speeches	-6241
▁ancestors	-6242
▁antiochus	-6243
▁celestial	-6244
▁corrupted	-6245
▁katharine	-6246
▁loathsome	-6247
▁correction	-6248
▁excellence	-6249
▁maidenhead	-6250
▁marvellous	-6251
▁observance	-6252
▁parliament	-6253
▁persuasion	-6254
▁profession	-6255
▁unkindness	-6256
▁westminster	-6257
▁schoolmaster	-6258
▁faulconbridge	-6259
tr	-6260
bra	-6261
gra	-6262
iot	-6263
mas	-6264
met	-6265
reg	-6266
til	-6267
▁si	-6268
alls	-6269
amps	-6270
ario	-6271
beit	-6272
burn	-6273
ched	-6274
colm	-6275
fret	-6276
kens	-6277
once	-6278
orus	-6279
oubt	-6280
oult	-6281
pire	-6282
roth	-6283
ular	-6284
▁ely	-6285
▁fac	-6286
▁les	-6287
▁lou	-6288
▁rue	-6289
▁tie	-6290
▁vig	-6291
▁vio	-6292
▁vot	-6293
ached	-6294
groom	-6295
inder	-6296
noble	-6297
order	-6298
tance	-6299
ually	-6300
ulter	-6301
▁ague	-6302
▁bait	-6303
▁bald	-6304
▁bona	-6305
▁drag	-6306
▁fulf	-6307
▁glow	-6308
▁hood	-6309
▁marg	-6310
▁mast	-6311
▁muff	-6312
▁neat	-6313
▁negl	-6314
▁omit	-6315
▁pern	-6316
▁plan	-6317
▁pope	-6318
▁ruth	-6319
▁scri	-6320
▁spot	-6321
▁surv	-6322
▁vers	-6323
bation	-6324
inking	-6325
lihood	-6326
▁aloof	-6327
▁april	-6328
▁bells	-6329
▁block	-6330
▁coats	-6331
▁corin	-6332
▁cryst	-6333
▁eaten	-6334
▁giant	-6335
▁grove	-6336
▁hunts	-6337
▁limit	-6338
▁lists	-6339
▁mouse	-6340
▁prays	-6341
▁print	-6342
▁puiss	-6343
▁renew	-6344
▁rings	-6345
▁robes	-6346
▁rocks	-6347
▁safer	-6348
▁sails	-6349
▁stirs	-6350
▁style	-6351
▁sugar	-6352
▁surpr	-6353
▁taint	-6354
▁tiger	-6355
▁unpro	-6356
▁valer	-6357
▁waves	-6358
inguish	-6359
raction	-6360
▁albans	-6361
▁debate	-6362
▁detest	-6363
▁flying	-6364
▁gaoler	-6365
▁german	-6366
▁guider	-6367
▁indire	-6368
▁kissed	-6369
▁majest	-6370
▁moiety	-6371
▁mutual	-6372
▁oppose	-6373
▁parson	-6374
▁pillow	-6375
▁placed	-6376
▁queens	-6377
▁rebuke	-6378
▁relent	-6379
▁repeat	-6380
▁shroud	-6381
▁speedy	-6382
▁statue	-6383
▁storms	-6384
▁sweets	-6385
▁utmost	-6386
▁vernon	-6387
▁welkin	-6388
▁wilful	-6389
▁worser	-6390
▁bending	-6391
▁changes	-6392
▁clamour	-6393
▁courses	-6394
▁coxcomb	-6395
▁crooked	-6396
▁dancing	-6397
▁dangers	-6398
▁degrees	-6399
▁demands	-6400
▁deserts	-6401
▁destiny	-6402
▁entered	-6403
▁figures	-6404
▁garment	-6405
▁keeping	-6406
▁malcolm	-6407
▁minutes	-6408
▁mounted	-6409
▁pattern	-6410
▁philipp	-6411
▁pomfret	-6412
▁presume	-6413
▁procure	-6414
▁profane	-6415
▁provoke	-6416
▁pursuit	-6417
▁reproof	-6418
▁sheriff	-6419
▁sympath	-6420
▁titania	-6421
▁walking	-6422
▁writing	-6423
adventure	-6424
▁affected	-6425
▁breathed	-6426
▁bringing	-6427
▁disguise	-6428
▁infected	-6429
▁miseries	-6430
▁passions	-6431
▁perjured	-6432
▁practise	-6433
▁treasons	-6434
▁yielding	-6435
▁commodity	-6436
▁endeavour	-6437
▁performed	-6438
▁pirithous	-6439
▁presented	-6440
▁prevented	-6441
▁religious	-6442
▁transport	-6443
▁bridegroom	-6444
▁companions	-6445
▁corruption	-6446
▁everywhere	-6447
▁pernicious	-6448
▁sufficient	-6449
▁immediately	-6450
▁understanding	-6451
sm	-6452
ye	-6453
’,	-6454
alo	-6455
bol	-6456
bts	-6457
cer	-6458
cho	-6459
ias	-6460
ics	-6461
jou	-6462
mus	-6463
oqu	-6464
pri	-6465
run	-6466
yet	-6467
yth	-6468
agus	-6469
aisa	-6470
apol	-6471
ared	-6472
boys	-6473
core	-6474
eser	-6475
iven	-6476
kins	-6477
late	-6478
live	-6479
omen	-6480
oned	-6481
ourn	-6482
tied	-6483
uary	-6484
wind	-6485
▁aug	-6486
▁awe	-6487
▁cob	-6488
▁ded	-6489
▁dom	-6490
▁fre	-6491
▁gav	-6492
▁lan	-6493
▁raw	-6494
▁raz	-6495
▁toy	-6496
▁vel	-6497
andra	-6498
craft	-6499
endom	-6500
ieved	-6501
ighth	-6502
iling	-6503
iring	-6504
itary	-6505
itute	-6506
pping	-6507
water	-6508
▁afar	-6509
▁bail	-6510
▁butt	-6511
▁buzz	-6512
▁clap	-6513
▁crab	-6514
▁crim	-6515
▁curb	-6516
▁deli	-6517
▁desc	-6518
▁diso	-6519
▁dole	-6520
▁dram	-6521
▁enfr	-6522
▁forc	-6523
▁gage	-6524
▁hire	-6525
▁idly	-6526
▁jesu	-6527
▁lute	-6528
▁mute	-6529
▁noon	-6530
▁prim	-6531
▁race	-6532
▁ribs	-6533
▁shoe	-6534
▁surm	-6535
▁tick	-6536
▁toad	-6537
▁unst	-6538
▁wart	-6539
alarum	-6540
iction	-6541
liness	-6542
tilene	-6543
twenty	-6544
verned	-6545
▁abund	-6546
▁allay	-6547
▁anjou	-6548
▁annoy	-6549
▁arvir	-6550
▁bough	-6551
▁built	-6552
▁bully	-6553
▁celia	-6554
▁covet	-6555
▁crush	-6556
▁cæsar	-6557
▁desol	-6558
▁drows	-6559
▁exact	-6560
▁fores	-6561
▁gorge	-6562
▁hills	-6563
▁lends	-6564
▁menas	-6565
▁moist	-6566
▁prais	-6567
▁sands	-6568
▁scant	-6569
▁secre	-6570
▁swoon	-6571
▁urged	-6572
▁visor	-6573
▁wakes	-6574
▁wring	-6575
eration	-6576
terbury	-6577
ulation	-6578
▁abomin	-6579
▁adrian	-6580
▁avaunt	-6581
▁ballad	-6582
▁bloods	-6583
▁chiron	-6584
▁contem	-6585
▁crimes	-6586
▁cuckoo	-6587
▁deeply	-6588
▁defeat	-6589
▁digest	-6590
▁drinks	-6591
▁drives	-6592
▁duncan	-6593
▁duties	-6594
▁empire	-6595
▁entire	-6596
▁errand	-6597
▁faster	-6598
▁fights	-6599
▁gloves	-6600
▁growth	-6601
▁hatred	-6602
▁horrid	-6603
▁marble	-6604
▁meddle	-6605
▁mocked	-6606
▁nuncle	-6607
▁obsequ	-6608
▁plough	-6609
▁quaint	-6610
▁revels	-6611
▁rising	-6612
▁shakes	-6613
▁square	-6614
▁stayed	-6615
▁thaisa	-6616
▁thebes	-6617
▁transg	-6618
▁verses	-6619
▁vision	-6620
▁wasted	-6621
▁wedded	-6622
▁wolves	-6623
▁achieve	-6624
▁adulter	-6625
▁allowed	-6626
▁angiers	-6627
▁assault	-6628
▁created	-6629
▁expense	-6630
▁falsely	-6631
▁fifteen	-6632
▁flavius	-6633
▁gonzalo	-6634
▁happier	-6635
▁highest	-6636
▁lechery	-6637
▁legions	-6638
▁mariana	-6639
▁mocking	-6640
▁outrage	-6641
▁parents	-6642
▁perdita	-6643
▁priests	-6644
▁rascals	-6645
▁showers	-6646
▁showing	-6647
▁sicilia	-6648
▁stabbed	-6649
▁studied	-6650
▁suitors	-6651
▁sweeter	-6652
▁tainted	-6653
▁threats	-6654
▁tragedy	-6655
▁trifles	-6656
▁whereat	-6657
▁articles	-6658
▁baseness	-6659
▁challeng	-6660
▁childish	-6661
▁churlish	-6662
▁commends	-6663
▁complete	-6664
▁deformed	-6665
▁despised	-6666
▁employed	-6667
▁enfranch	-6668
▁fighting	-6669
▁intended	-6670
▁mytilene	-6671
▁profound	-6672
▁scarcely	-6673
▁somewhat	-6674
▁stealing	-6675
▁thorough	-6676
▁threaten	-6677
▁violence	-6678
▁arviragus	-6679
▁beginning	-6680
▁confident	-6681
▁constancy	-6682
▁dispersed	-6683
▁flatterer	-6684
▁frenchman	-6685
▁guiderius	-6686
▁labouring	-6687
▁moonshine	-6688
▁mountains	-6689
▁multitude	-6690
▁overthrow	-6691
▁thousands	-6692
▁ventidius	-6693
▁affliction	-6694
▁canterbury	-6695
▁charitable	-6696
▁especially	-6697
▁excursions	-6698
▁gentleness	-6699
▁impatience	-6700
▁oppression	-6701
▁patricians	-6702
▁proclaimed	-6703
▁servingman	-6704
▁acknowledge	-6705
▁christendom	-6706
▁description	-6707
▁dishonoured	-6708
▁performance	-6709
?’	-6710
ky	-6711
zy	-6712
awn	-6713
egr	-6714
fty	-6715
ibe	-6716
inc	-6717
ipt	-6718
sir	-6719
ula	-6720
who	-6721
wny	-6722
▁ew	-6723
aned	-6724
asar	-6725
bell	-6726
book	-6727
enor	-6728
iday	-6729
iend	-6730
lebr	-6731
lier	-6732
mont	-6733
oted	-6734
ruly	-6735
sino	-6736
thus	-6737
unch	-6738
your	-6739
▁cri	-6740
▁enl	-6741
▁fer	-6742
▁fut	-6743
▁gun	-6744
▁hem	-6745
▁its	-6746
▁lev	-6747
▁lic	-6748
▁pel	-6749
▁tub	-6750
▁urs	-6751
beron	-6752
earse	-6753
heard	-6754
icial	-6755
imony	-6756
itive	-6757
ridge	-6758
worth	-6759
▁alms	-6760
▁anch	-6761
▁bate	-6762
▁bide	-6763
▁blem	-6764
▁caps	-6765
▁clay	-6766
▁coal	-6767
▁cull	-6768
▁fray	-6769
▁gilt	-6770
▁heal	-6771
▁heap	-6772
▁holp	-6773
▁lime	-6774
▁meed	-6775
▁nigh	-6776
▁peto	-6777
▁rape	-6778
▁road	-6779
▁sums	-6780
▁terr	-6781
▁trow	-6782
▁unth	-6783
▁uses	-6784
▁whet	-6785
aggers	-6786
taking	-6787
ursday	-6788
▁afore	-6789
▁assay	-6790
▁banks	-6791
▁bills	-6792
▁boult	-6793
▁brawl	-6794
▁debts	-6795
▁dover	-6796
▁droop	-6797
▁gloss	-6798
▁helps	-6799
▁impud	-6800
▁incon	-6801
▁lafew	-6802
▁lofty	-6803
▁madly	-6804
▁merch	-6805
▁obliv	-6806
▁owner	-6807
▁perio	-6808
▁rated	-6809
▁scarf	-6810
▁songs	-6811
▁stake	-6812
▁stray	-6813
▁viola	-6814
isement	-6815
mission	-6816
▁agreed	-6817
▁albeit	-6818
▁beseem	-6819
▁bigger	-6820
▁blanch	-6821
▁boldly	-6822
▁casket	-6823
▁cities	-6824
▁contag	-6825
▁dreamt	-6826
▁excess	-6827
▁feasts	-6828
▁filled	-6829
▁gazing	-6830
▁gladly	-6831
▁homely	-6832
▁integr	-6833
▁julius	-6834
▁latest	-6835
▁leaden	-6836
▁liquor	-6837
▁losses	-6838
▁motive	-6839
▁oberon	-6840
▁orsino	-6841
▁outlaw	-6842
▁passes	-6843
▁plants	-6844
▁poster	-6845
▁raised	-6846
▁resolv	-6847
▁richly	-6848
▁rushes	-6849
▁sickly	-6850
▁starts	-6851
▁thirst	-6852
▁vilely	-6853
flourish	-6854
▁accompl	-6855
▁beating	-6856
▁belongs	-6857
▁brabant	-6858
▁capable	-6859
▁ceremon	-6860
▁courtes	-6861
▁curious	-6862
▁descent	-6863
▁feeding	-6864
▁finding	-6865
▁heinous	-6866
▁knavery	-6867
▁leading	-6868
▁mingled	-6869
▁mystery	-6870
▁opposed	-6871
▁project	-6872
▁putting	-6873
▁recount	-6874
▁reports	-6875
▁returns	-6876
▁revenue	-6877
▁secrecy	-6878
▁shining	-6879
▁solicit	-6880
▁thereto	-6881
▁braggart	-6882
▁carrying	-6883
▁cheerful	-6884
▁cowardly	-6885
▁detested	-6886
▁exercise	-6887
▁extremes	-6888
▁function	-6889
▁instinct	-6890
▁miscarry	-6891
▁philippi	-6892
▁pleaseth	-6893
▁property	-6894
▁respects	-6895
▁restored	-6896
▁shameful	-6897
▁slanders	-6898
▁thursday	-6899
▁withered	-6900
▁balthasar	-6901
▁blessings	-6902
▁bounteous	-6903
▁breakfast	-6904
▁concluded	-6905
▁frenchmen	-6906
▁mortality	-6907
▁nobleness	-6908
▁occasions	-6909
▁patiently	-6910
▁saturnine	-6911
▁swallowed	-6912
▁transform	-6913
▁traveller	-6914
▁worthless	-6915
▁confession	-6916
▁counsellor	-6917
▁prosperity	-6918
▁reasonable	-6919
▁witchcraft	-6920
▁ambassadors	-6921
▁consequence	-6922
▁superfluous	-6923
ah	-6924
fa	-6925
mo	-6926
rh	-6927
—_	-6928
”;	-6929
acc	-6930
aux	-6931
bby	-6932
cip	-6933
cor	-6934
eys	-6935
fac	-6936
gan	-6937
his	-6938
isc	-6939
lot	-6940
mad	-6941
orm	-6942
pit	-6943
ugg	-6944
uss	-6945
▁il	-6946
anda	-6947
ares	-6948
bler	-6949
chas	-6950
cock	-6951
foot	-6952
give	-6953
ibly	-6954
izel	-6955
kiss	-6956
ming	-6957
ools	-6958
ouen	-6959
over	-6960
rion	-6961
tish	-6962
whel	-6963
▁eur	-6964
▁fro	-6965
▁hey	-6966
▁lab	-6967
▁mum	-6968
▁nav	-6969
▁oil	-6970
▁osw	-6971
▁pav	-6972
▁roy	-6973
▁smo	-6974
▁sow	-6975
▁urg	-6976
angle	-6977
anied	-6978
antic	-6979
atage	-6980
eming	-6981
field	-6982
geons	-6983
icity	-6984
imber	-6985
inent	-6986
inger	-6987
isons	-6988
itate	-6989
knock	-6990
lings	-6991
music	-6992
ocate	-6993
pence	-6994
quess	-6995
thern	-6996
thest	-6997
▁ante	-6998
▁barb	-6999
▁bath	-7000
▁bolt	-7001
▁chaf	-7002
▁echo	-7003
▁flam	-7004
▁flue	-7005
▁foil	-7006
▁hiss	-7007
▁idol	-7008
▁insp	-7009
▁jump	-7010
▁keys	-7011
▁leaf	-7012
▁limb	-7013
▁pipe	-7014
▁reap	-7015
▁rope	-7016
▁sext	-7017
▁sund	-7018
▁syll	-7019
▁torn	-7020
▁trag	-7021
▁unfe	-7022
▁weal	-7023
enetta	-7024
idered	-7025
nesday	-7026
orious	-7027
ounded	-7028
rolled	-7029
▁abate	-7030
▁adore	-7031
▁apply	-7032
▁belov	-7033
▁bench	-7034
▁bushy	-7035
▁crept	-7036
▁crime	-7037
▁embra	-7038
▁entra	-7039
▁grain	-7040
▁griff	-7041
▁hides	-7042
▁hymen	-7043
▁judas	-7044
▁linen	-7045
▁louis	-7046
▁magic	-7047
▁maine	-7048
▁moder	-7049
▁moody	-7050
▁overt	-7051
▁prate	-7052
▁prett	-7053
▁privy	-7054
▁rouen	-7055
▁scars	-7056
▁simon	-7057
▁slack	-7058
▁sweep	-7059
▁thumb	-7060
▁varro	-7061
▁wooer	-7062
chorida	-7063
iculous	-7064
▁alexas	-7065
▁avouch	-7066
▁candle	-7067
▁celebr	-7068
▁coldly	-7069
▁corner	-7070
▁cradle	-7071
▁crutch	-7072
▁discom	-7073
▁dispra	-7074
▁doting	-7075
▁drowsy	-7076
▁during	-7077
▁dwells	-7078
▁fiends	-7079
▁fulvia	-7080
▁ghosts	-7081
▁haught	-7082
▁hinder	-7083
▁insult	-7084
▁listen	-7085
▁minion	-7086
▁norway	-7087
▁oswald	-7088
▁papers	-7089
▁parcel	-7090
▁patron	-7091
▁period	-7092
▁permit	-7093
▁pounds	-7094
▁prover	-7095
▁proves	-7096
▁rabble	-7097
▁richer	-7098
▁scroll	-7099
▁shamed	-7100
▁shames	-7101
▁silken	-7102
▁steals	-7103
▁summon	-7104
▁unruly	-7105
▁watery	-7106
ighthood	-7107
▁accused	-7108
▁admired	-7109
▁antenor	-7110
▁asunder	-7111
▁battles	-7112
▁beneath	-7113
▁captive	-7114
▁chiefly	-7115
▁collect	-7116
▁comment	-7117
▁cousins	-7118
▁cranmer	-7119
▁crystal	-7120
▁dislike	-7121
▁dressed	-7122
▁feature	-7123
▁fleance	-7124
▁frantic	-7125
▁goodman	-7126
▁intends	-7127
▁italian	-7128
▁leather	-7129
▁loathed	-7130
▁murders	-7131
▁noblest	-7132
▁nourish	-7133
▁outlive	-7134
▁penance	-7135
▁pirates	-7136
▁pleases	-7137
▁princip	-7138
▁produce	-7139
▁publish	-7140
▁relieve	-7141
▁ruffian	-7142
▁scourge	-7143
▁springs	-7144
▁talents	-7145
▁temples	-7146
▁tempted	-7147
▁warning	-7148
▁approved	-7149
▁bastards	-7150
▁benvolio	-7151
▁boldness	-7152
▁borrowed	-7153
▁dwelling	-7154
▁entrance	-7155
▁fluellen	-7156
▁fountain	-7157
▁frowning	-7158
▁humility	-7159
▁incensed	-7160
▁indirect	-7161
▁languish	-7162
▁laughing	-7163
▁mightily	-7164
▁nativity	-7165
▁oblivion	-7166
▁pregnant	-7167
▁receives	-7168
▁rehearse	-7169
▁stratage	-7170
▁usurping	-7171
▁warriors	-7172
▁worthily	-7173
▁cambridge	-7174
▁complaint	-7175
▁cowardice	-7176
▁dignities	-7177
▁infirmity	-7178
▁integrity	-7179
▁lychorida	-7180
▁malicious	-7181
▁recovered	-7182
▁sanctuary	-7183
▁uncertain	-7184
▁whereupon	-7185
▁worthiest	-7186
▁compassion	-7187
▁confidence	-7188
▁fellowship	-7189
▁impediment	-7190
▁jaquenetta	-7191
▁knighthood	-7192
▁likelihood	-7193
▁pilgrimage	-7194
▁ridiculous	-7195
▁speechless	-7196
▁touchstone	-7197
▁triumphant	-7198
▁victorious	-7199
▁visitation	-7200
▁fantastical	-7201
▁indifferent	-7202
▁proceedings	-7203
▁peradventure	-7204
ns	-7205
rs	-7206
sn	-7207
aft	-7208
beg	-7209
cst	-7210
eks	-7211
mar	-7212
nox	-7213
pen	-7214
rog	-7215
uba	-7216
voc	-7217
yza	-7218
▁12	-7219
▁‘“	-7220
adem	-7221
arre	-7222
aten	-7223
duke	-7224
enix	-7225
erem	-7226
ersh	-7227
eyed	-7228
gard	-7229
gory	-7230
igon	-7231
itan	-7232
ixed	-7233
pton	-7234
rels	-7235
tock	-7236
uate	-7237
urse	-7238
vail	-7239
▁bor	-7240
▁cab	-7241
▁cad	-7242
▁ced	-7243
▁dir	-7244
▁egg	-7245
▁eun	-7246
▁gul	-7247
▁ken	-7248
▁pud	-7249
▁pup	-7250
▁pyr	-7251
▁rod	-7252
▁tab	-7253
▁toe	-7254
▁upb	-7255
acity	-7256
ading	-7257
aring	-7258
comes	-7259
draws	-7260
eless	-7261
ellus	-7262
feits	-7263
inged	-7264
itiff	-7265
maker	-7266
neath	-7267
onstr	-7268
pulch	-7269
quiet	-7270
rates	-7271
sayer	-7272
suing	-7273
urous	-7274
white	-7275
▁arra	-7276
▁brag	-7277
▁buds	-7278
▁cloy	-7279
▁deem	-7280
▁dick	-7281
▁ecst	-7282
▁fang	-7283
▁fist	-7284
▁fowl	-7285
▁gaol	-7286
▁gust	-7287
▁heel	-7288
▁herd	-7289
▁hoar	-7290
▁hook	-7291
▁hume	-7292
▁jade	-7293
▁lull	-7294
▁magn	-7295
▁merr	-7296
▁moth	-7297
▁nell	-7298
▁pert	-7299
▁plum	-7300
▁prat	-7301
▁puff	-7302
▁purg	-7303
▁rags	-7304
▁rode	-7305
▁seiz	-7306
▁tack	-7307
▁tink	-7308
▁trot	-7309
▁vein	-7310
▁whir	-7311
anging	-7312
angled	-7313
coming	-7314
idents	-7315
throws	-7316
▁actor	-7317
▁arbit	-7318
▁array	-7319
▁bands	-7320
▁blank	-7321
▁brace	-7322
▁broth	-7323
▁choke	-7324
▁cords	-7325
▁curio	-7326
▁divin	-7327
▁dried	-7328
▁fates	-7329
▁feats	-7330
▁fence	-7331
▁gains	-7332
▁heath	-7333
▁hound	-7334
▁hurts	-7335
▁incur	-7336
▁lacks	-7337
▁meets	-7338
▁memor	-7339
▁model	-7340
▁popul	-7341
▁proff	-7342
▁revel	-7343
▁roots	-7344
▁ruled	-7345
▁sauce	-7346
▁serge	-7347
▁shoes	-7348
▁spell	-7349
▁spher	-7350
▁spies	-7351
▁suppl	-7352
▁taper	-7353
▁thigh	-7354
▁truer	-7355
▁volsc	-7356
▁vowed	-7357
▁whisp	-7358
▁witty	-7359
▁worsh	-7360
indarus	-7361
ocation	-7362
▁acquit	-7363
▁armies	-7364
▁begged	-7365
▁belief	-7366
▁cheese	-7367
▁coffin	-7368
▁concer	-7369
▁cudgel	-7370
▁daring	-7371
▁decius	-7372
▁doubts	-7373
▁ending	-7374
▁eunuch	-7375
▁falcon	-7376
▁finish	-7377
▁future	-7378
▁gentry	-7379
▁gossip	-7380
▁hecuba	-7381
▁highly	-7382
▁homage	-7383
▁kneels	-7384
▁lennox	-7385
▁melted	-7386
▁mended	-7387
▁mouldy	-7388
▁napkin	-7389
▁nymphs	-7390
▁pandar	-7391
▁parish	-7392
▁plenty	-7393
▁plucks	-7394
▁presum	-7395
▁region	-7396
▁reigns	-7397
▁rememb	-7398
▁resort	-7399
▁sayest	-7400
▁sealed	-7401
▁shrill	-7402
▁siward	-7403
▁sports	-7404
▁thorns	-7405
▁tokens	-7406
▁truant	-7407
▁ursula	-7408
▁velvet	-7409
▁washed	-7410
▁weaker	-7411
▁winged	-7412
▁wreath	-7413
kneeling	-7414
▁affords	-7415
▁antique	-7416
▁bewitch	-7417
▁blanche	-7418
▁caitiff	-7419
▁calchas	-7420
▁calling	-7421
▁charges	-7422
▁chronic	-7423
▁crimson	-7424
▁crosses	-7425
▁devised	-7426
▁diamond	-7427
▁dionyza	-7428
▁display	-7429
▁exploit	-7430
▁eyelids	-7431
▁gravity	-7432
▁gregory	-7433
▁grieved	-7434
▁heavier	-7435
▁heralds	-7436
▁incense	-7437
▁inhabit	-7438
▁instead	-7439
▁lasting	-7440
▁mansion	-7441
▁meanest	-7442
▁mustard	-7443
▁naughty	-7444
▁navarre	-7445
▁objects	-7446
▁obscure	-7447
▁partner	-7448
▁pastime	-7449
▁payment	-7450
▁philome	-7451
▁precise	-7452
▁receipt	-7453
▁rowland	-7454
▁scarlet	-7455
▁sepulch	-7456
▁shelter	-7457
▁stopped	-7458
▁surgeon	-7459
▁tapster	-7460
▁torches	-7461
▁univers	-7462
▁upbraid	-7463
▁wayward	-7464
▁whoever	-7465
▁wonders	-7466
▁alliance	-7467
▁appeared	-7468
▁betrayed	-7469
▁champion	-7470
▁contempl	-7471
▁counsels	-7472
▁egyptian	-7473
▁feathers	-7474
▁florizel	-7475
▁follower	-7476
▁forgiven	-7477
▁frighted	-7478
▁fruitful	-7479
▁idleness	-7480
▁marquess	-7481
▁metellus	-7482
▁moreover	-7483
▁musician	-7484
▁personal	-7485
▁religion	-7486
▁reported	-7487
▁resolute	-7488
▁revenges	-7489
▁selfsame	-7490
▁smallest	-7491
▁unmanner	-7492
▁wrinkled	-7493
▁accidents	-7494
▁beautiful	-7495
▁conquered	-7496
▁continual	-7497
▁deserving	-7498
▁disgraced	-7499
▁forgotten	-7500
▁husbandry	-7501
▁imperious	-7502
▁injurious	-7503
▁murderous	-7504
▁neglected	-7505
▁parentage	-7506
▁readiness	-7507
▁subscribe	-7508
▁surprised	-7509
▁tyrannous	-7510
▁unwilling	-7511
▁wednesday	-7512
▁abominable	-7513
▁approaches	-7514
▁assistance	-7515
▁breathless	-7516
▁discharged	-7517
▁distressed	-7518
▁soothsayer	-7519
▁succession	-7520
▁underneath	-7521
▁worthiness	-7522
▁composition	-7523
▁distinguish	-7524
▁executioner	-7525
▁instruction	-7526
▁discontented	-7527
ba	-7528
ez	-7529
sl	-7530
’.	-7531
’;	-7532
abl	-7533
iev	-7534
lev	-7535
nay	-7536
omy	-7537
poc	-7538
pro	-7539
rib	-7540
voi	-7541
▁13	-7542
▁ig	-7543
agon	-7544
arms	-7545
aven	-7546
bras	-7547
calf	-7548
eing	-7549
irts	-7550
ital	-7551
lest	-7552
mans	-7553
ourt	-7554
plex	-7555
rhus	-7556
rude	-7557
tany	-7558
uned	-7559
wart	-7560
wear	-7561
▁bal	-7562
▁cau	-7563
▁lac	-7564
▁lux	-7565
▁mam	-7566
▁map	-7567
▁moe	-7568
▁myr	-7569
▁nig	-7570
▁nut	-7571
▁rad	-7572
▁rav	-7573
achio	-7574
anged	-7575
athom	-7576
berry	-7577
bless	-7578
board	-7579
cends	-7580
envoi	-7581
faith	-7582
ifies	-7583
ifter	-7584
imate	-7585
inish	-7586
keley	-7587
sweet	-7588
women	-7589
▁abst	-7590
▁ages	-7591
▁arts	-7592
▁bars	-7593
▁beck	-7594
▁beef	-7595
▁brim	-7596
▁bulk	-7597
▁chim	-7598
▁copy	-7599
▁cram	-7600
▁cuts	-7601
▁dido	-7602
▁encl	-7603
▁fert	-7604
▁file	-7605
▁guts	-7606
▁hack	-7607
▁harp	-7608
▁howl	-7609
▁illy	-7610
▁kern	-7611
▁lawy	-7612
▁meek	-7613
▁mete	-7614
▁nick	-7615
▁orph	-7616
▁phry	-7617
▁plat	-7618
▁puck	-7619
▁refr	-7620
▁rive	-7621
▁shop	-7622
▁tart	-7623
▁text	-7624
▁tops	-7625
▁toss	-7626
▁trad	-7627
▁twin	-7628
▁unsh	-7629
▁vest	-7630
▁void	-7631
▁wave	-7632
ainder	-7633
ambers	-7634
ancies	-7635
cellus	-7636
erempt	-7637
esario	-7638
igonus	-7639
inbras	-7640
ivious	-7641
minate	-7642
sblood	-7643
▁adder	-7644
▁advis	-7645
▁amain	-7646
▁arras	-7647
▁badge	-7648
▁baser	-7649
▁bawdy	-7650
▁brake	-7651
▁butch	-7652
▁charg	-7653
▁crisp	-7654
▁dally	-7655
▁derby	-7656
▁eager	-7657
▁eloqu	-7658
▁ensue	-7659
▁fully	-7660
▁heave	-7661
▁hypoc	-7662
▁influ	-7663
▁jests	-7664
▁lambs	-7665
▁lowly	-7666
▁marin	-7667
▁mates	-7668
▁noses	-7669
▁pangs	-7670
▁parch	-7671
▁parle	-7672
▁parth	-7673
▁pavil	-7674
▁plots	-7675
▁quill	-7676
▁rider	-7677
▁separ	-7678
▁shirt	-7679
▁smart	-7680
▁snare	-7681
▁sorts	-7682
▁stiff	-7683
▁stopp	-7684
▁tabor	-7685
▁tardy	-7686
▁taunt	-7687
▁traff	-7688
▁truce	-7689
▁unlaw	-7690
▁usage	-7691
▁vices	-7692
▁waist	-7693
▁wiped	-7694
▁wooed	-7695
▁wreck	-7696
antages	-7697
ardiner	-7698
quisite	-7699
▁accent	-7700
▁arrant	-7701
▁ascend	-7702
▁ashore	-7703
▁beards	-7704
▁brazen	-7705
▁causes	-7706
▁chival	-7707
▁circle	-7708
▁cloudy	-7709
▁compet	-7710
▁compul	-7711
▁confir	-7712
▁consec	-7713
▁covent	-7714
▁crafty	-7715
▁fathom	-7716
▁fitted	-7717
▁galled	-7718
▁horror	-7719
▁indust	-7720
▁joined	-7721
▁lively	-7722
▁marked	-7723
▁picked	-7724
▁quince	-7725
▁rarely	-7726
▁retain	-7727
▁robbed	-7728
▁seated	-7729
▁smells	-7730
▁states	-7731
▁strait	-7732
▁suborn	-7733
▁suprem	-7734
▁tables	-7735
▁talked	-7736
▁tickle	-7737
▁treble	-7738
▁truest	-7739
▁tullus	-7740
▁yields	-7741
▁adverse	-7742
▁applaud	-7743
▁barbary	-7744
▁blemish	-7745
▁blushes	-7746
▁breasts	-7747
▁capital	-7748
▁carrion	-7749
▁cerimon	-7750
▁cesario	-7751
▁compact	-7752
▁consist	-7753
▁derived	-7754
▁disobed	-7755
▁embassy	-7756
▁endured	-7757
▁fantasy	-7758
▁footing	-7759
▁furious	-7760
▁holiday	-7761
▁inquire	-7762
▁labours	-7763
▁mangled	-7764
▁messina	-7765
▁miranda	-7766
▁niggard	-7767
▁parties	-7768
▁pasture	-7769
▁perempt	-7770
▁phoenix	-7771
▁prescri	-7772
▁pyrrhus	-7773
▁streams	-7774
▁studies	-7775
▁subdued	-7776
▁swifter	-7777
▁whereby	-7778
▁worldly	-7779
fortunate	-7780
▁abhorred	-7781
▁advanced	-7782
▁assembly	-7783
▁bankrupt	-7784
▁berkeley	-7785
▁breathes	-7786
▁brittany	-7787
▁converse	-7788
▁daylight	-7789
▁disorder	-7790
▁disposed	-7791
▁entreats	-7792
▁eternity	-7793
▁farthest	-7794
▁gardiner	-7795
▁griffith	-7796
▁knocking	-7797
▁monmouth	-7798
▁offender	-7799
▁peaceful	-7800
▁penitent	-7801
▁philomel	-7802
▁proudest	-7803
▁requires	-7804
▁security	-7805
▁sergeant	-7806
▁spacious	-7807
▁stomachs	-7808
▁teaching	-7809
▁vanquish	-7810
▁worthies	-7811
▁wrathful	-7812
▁wrinkles	-7813
▁antigonus	-7814
▁commander	-7815
▁continues	-7816
▁discovery	-7817
▁exquisite	-7818
▁heaviness	-7819
▁insolence	-7820
▁interpret	-7821
▁marcellus	-7822
▁notorious	-7823
▁posterity	-7824
▁prevailed	-7825
▁proceeded	-7826
▁questions	-7827
▁shepherds	-7828
▁simonides	-7829
▁solemnity	-7830
▁stockings	-7831
▁universal	-7832
▁admiration	-7833
▁apparition	-7834
▁determined	-7835
▁discovered	-7836
▁distracted	-7837
▁fortinbras	-7838
▁lamentable	-7839
▁negligence	-7840
▁simplicity	-7841
▁unmannerly	-7842
▁whatsoever	-7843
▁accompanied	-7844
▁commandment	-7845
▁dissembling	-7846
▁encountered	-7847
▁entertained	-7848
▁grandfather	-7849
▁inheritance	-7850
▁apprehension	-7851
▁imprisonment	-7852
▁commendations	-7853
ae	-7854
ux	-7855
yn	-7856
’?	-7857
”—	-7858
ecy	-7859
elp	-7860
emp	-7861
hon	-7862
lar	-7863
nel	-7864
ody	-7865
orp	-7866
ugs	-7867
uto	-7868
vis	-7869
▁cu	-7870
▁os	-7871
back	-7872
bery	-7873
cast	-7874
cont	-7875
days	-7876
ecen	-7877
eres	-7878
face	-7879
fair	-7880
fare	-7881
join	-7882
made	-7883
olas	-7884
olks	-7885
onso	-7886
pled	-7887
pper	-7888
rade	-7889
reet	-7890
seed	-7891
seth	-7892
tell	-7893
tong	-7894
uced	-7895
unct	-7896
urus	-7897
▁adj	-7898
▁aqu	-7899
▁cue	-7900
▁dit	-7901
▁etc	-7902
▁ini	-7903
▁lot	-7904
▁mul	-7905
▁nin	-7906
▁riv	-7907
▁sew	-7908
▁web	-7909
balls	-7910
ceeds	-7911
cetta	-7912
ghill	-7913
icero	-7914
ilful	-7915
inded	-7916
liest	-7917
orate	-7918
otent	-7919
ounce	-7920
piece	-7921
ribly	-7922
sheet	-7923
sound	-7924
thorn	-7925
ythee	-7926
▁abod	-7927
▁airy	-7928
▁anth	-7929
▁boon	-7930
▁bowl	-7931
▁bows	-7932
▁buff	-7933
▁cato	-7934
▁clip	-7935
▁cong	-7936
▁crew	-7937
▁eyne	-7938
▁frag	-7939
▁gest	-7940
▁glut	-7941
▁gull	-7942
▁impe	-7943
▁item	-7944
▁lamp	-7945
▁lasc	-7946
▁levy	-7947
▁liar	-7948
▁lodg	-7949
▁mate	-7950
▁mole	-7951
▁murm	-7952
▁nail	-7953
▁nich	-7954
▁pisa	-7955
▁plac	-7956
▁priz	-7957
▁prog	-7958
▁ranc	-7959
▁rejo	-7960
▁rele	-7961
▁rout	-7962
▁swan	-7963
▁thaw	-7964
▁tire	-7965
▁trun	-7966
▁untr	-7967
▁vail	-7968
▁waft	-7969
abella	-7970
ampton	-7971
aughan	-7972
bonius	-7973
ecenas	-7974
friend	-7975
gentle	-7976
iences	-7977
ilogue	-7978
inance	-7979
inence	-7980
lamour	-7981
sinane	-7982
tering	-7983
vertis	-7984
▁aband	-7985
▁antic	-7986
▁bagot	-7987
▁canop	-7988
▁chape	-7989
▁colev	-7990
▁discl	-7991
▁doves	-7992
▁edict	-7993
▁fills	-7994
▁frenz	-7995
▁goest	-7996
▁greyh	-7997
▁heigh	-7998
▁holla	-7999
▁insin	-8000
▁irish	-8001
▁nonny	-8002
▁pilot	-8003
▁plebe	-8004
▁ports	-8005
▁pupil	-8006
▁quake	-8007
▁quant	-8008
▁rages	-8009
▁reads	-8010
▁rests	-8011
▁saith	-8012
▁sheet	-8013
▁swine	-8014
▁talks	-8015
▁tawny	-8016
▁tubal	-8017
▁venet	-8018
▁wages	-8019
▁wiser	-8020
ception	-8021
enerate	-8022
unction	-8023
▁abject	-8024
▁attach	-8025
▁attorn	-8026
▁basest	-8027
▁beadle	-8028
▁centre	-8029
▁chorus	-8030
▁cicero	-8031
▁corpse	-8032
▁decree	-8033
▁deeper	-8034
▁diadem	-8035
▁dishes	-8036
▁drawer	-8037
▁drench	-8038
▁errors	-8039
▁events	-8040
▁famish	-8041
▁fickle	-8042
▁fisher	-8043
▁flames	-8044
▁glance	-8045
▁habits	-8046
▁handle	-8047
▁images	-8048
▁landed	-8049
▁leader	-8050
▁linger	-8051
▁locked	-8052
▁masked	-8053
▁merits	-8054
▁mingle	-8055
▁orator	-8056
▁pearls	-8057
▁remote	-8058
▁saints	-8059
▁savour	-8060
▁senior	-8061
▁simply	-8062
▁towers	-8063
▁unhall	-8064
▁upward	-8065
▁verily	-8066
▁widows	-8067
▁wilder	-8068
▁wildly	-8069
▁wisest	-8070
athaniel	-8071
knocking	-8072
▁altered	-8073
▁augment	-8074
▁austria	-8075
▁belmont	-8076
▁betroth	-8077
▁betters	-8078
▁chances	-8079
▁cheerly	-8080
▁clapped	-8081
▁coffers	-8082
▁daggers	-8083
▁dealing	-8084
▁decrees	-8085
▁draught	-8086
▁ecstasy	-8087
▁enlarge	-8088
▁enraged	-8089
▁equally	-8090
▁faintly	-8091
▁fancies	-8092
▁fasting	-8093
▁fertile	-8094
▁foolery	-8095
▁froward	-8096
▁glories	-8097
▁heavily	-8098
▁however	-8099
▁illyria	-8100
▁lantern	-8101
▁leagues	-8102
▁lucetta	-8103
▁mercury	-8104
▁million	-8105
▁misfort	-8106
▁motions	-8107
▁notable	-8108
▁oppress	-8109
▁outside	-8110
▁perplex	-8111
▁prating	-8112
▁servile	-8113
▁shaking	-8114
▁spotted	-8115
▁starved	-8116
▁strings	-8117
▁succour	-8118
▁survive	-8119
▁syracus	-8120
▁tyrants	-8121
▁warrior	-8122
▁whistle	-8123
uneration	-8124
▁advertis	-8125
▁barnardo	-8126
▁branches	-8127
▁chambers	-8128
▁changing	-8129
▁chiefest	-8130
▁chivalry	-8131
▁contains	-8132
▁coventry	-8133
▁covetous	-8134
▁creation	-8135
▁defiance	-8136
▁devilish	-8137
▁directed	-8138
▁drunkard	-8139
▁eglamour	-8140
▁holiness	-8141
▁inclined	-8142
▁laboured	-8143
▁maecenas	-8144
▁manifest	-8145
▁monsters	-8146
▁nicholas	-8147
▁nighting	-8148
▁pavilion	-8149
▁piercing	-8150
▁prophecy	-8151
▁ravished	-8152
▁reconcil	-8153
▁requests	-8154
▁torments	-8155
▁triumphs	-8156
▁ungentle	-8157
▁worthier	-8158
▁wretches	-8159
▁abundance	-8160
▁admirable	-8161
▁brabantio	-8162
▁clamorous	-8163
▁collected	-8164
▁commended	-8165
▁confessed	-8166
▁confounds	-8167
▁constance	-8168
▁continent	-8169
▁descended	-8170
▁dishonest	-8171
▁dissemble	-8172
▁dolabella	-8173
▁dunsinane	-8174
▁flaminius	-8175
▁flattered	-8176
▁furnished	-8177
▁generally	-8178
▁oppressed	-8179
▁perceived	-8180
▁plenteous	-8181
▁practices	-8182
▁principal	-8183
▁respected	-8184
▁restraint	-8185
▁severally	-8186
▁sweetness	-8187
▁trebonius	-8188
▁wherewith	-8189
▁appearance	-8190
▁characters	-8191
▁churchyard	-8192
▁concerning	-8193
▁discipline	-8194
▁faithfully	-8195
▁flatterers	-8196
▁florentine	-8197
▁ingrateful	-8198
▁lascivious	-8199
▁peremptory	-8200
▁pestilence	-8201
▁philosophy	-8202
▁tenderness	-8203
▁approbation	-8204
▁comfortable	-8205
▁distraction	-8206
▁necessities	-8207
▁philosopher	-8208
▁yesternight	-8209
gu	-8210
’—	-8211
abs	-8212
alb	-8213
did	-8214
erg	-8215
erp	-8216
eur	-8217
lph	-8218
nis	-8219
wit	-8220
wor	-8221
▁gy	-8222
▁ti	-8223
▁tu	-8224
ager	-8225
amis	-8226
bess	-8227
cest	-8228
clip	-8229
flow	-8230
hors	-8231
idel	-8232
ithe	-8233
itus	-8234
lers	-8235
lict	-8236
oles	-8237
oric	-8238
pple	-8239
rose	-8240
tley	-8241
tree	-8242
▁aed	-8243
▁bef	-8244
▁bir	-8245
▁bub	-8246
▁cas	-8247
▁cow	-8248
▁gad	-8249
▁gam	-8250
▁gan	-8251
▁gor	-8252
▁hay	-8253
▁hew	-8254
▁hog	-8255
▁jar	-8256
▁jig	-8257
▁lik	-8258
▁mew	-8259
▁pep	-8260
▁phœ	-8261
▁ram	-8262
▁sne	-8263
adise	-8264
aning	-8265
ashes	-8266
atory	-8267
bable	-8268
cheap	-8269
cloth	-8270
dling	-8271
eared	-8272
eethe	-8273
elius	-8274
erick	-8275
iding	-8276
inies	-8277
oster	-8278
ovico	-8279
perse	-8280
sever	-8281
smith	-8282
stood	-8283
takes	-8284
versy	-8285
ville	-8286
▁ache	-8287
▁anat	-8288
▁apes	-8289
▁bour	-8290
▁brew	-8291
▁clos	-8292
▁coil	-8293
▁crop	-8294
▁cush	-8295
▁duck	-8296
▁enth	-8297
▁flag	-8298
▁flin	-8299
▁fred	-8300
▁gasp	-8301
▁gets	-8302
▁grin	-8303
▁gulf	-8304
▁haut	-8305
▁hawk	-8306
▁herb	-8307
▁jugg	-8308
▁lane	-8309
▁leek	-8310
▁misd	-8311
▁oper	-8312
▁palt	-8313
▁pett	-8314
▁poll	-8315
▁rapt	-8316
▁roll	-8317
▁sale	-8318
▁sans	-8319
▁sauc	-8320
▁spin	-8321
▁stew	-8322
▁suns	-8323
▁surn	-8324
▁toys	-8325
▁viii	-8326
▁wins	-8327
▁yare	-8328
albain	-8329
morris	-8330
usions	-8331
▁adopt	-8332
▁agent	-8333
▁alien	-8334
▁ample	-8335
▁arrog	-8336
▁belch	-8337
▁brine	-8338
▁cabin	-8339
▁cedar	-8340
▁chaff	-8341
▁chann	-8342
▁conge	-8343
▁cured	-8344
▁ditch	-8345
▁dooms	-8346
▁drugs	-8347
▁egeon	-8348
▁extra	-8349
▁folks	-8350
▁foret	-8351
▁fours	-8352
▁globe	-8353
▁gripe	-8354
▁jades	-8355
▁loins	-8356
▁loses	-8357
▁marty	-8358
▁minst	-8359
▁muddy	-8360
▁named	-8361
▁occup	-8362
▁pages	-8363
▁pious	-8364
▁plate	-8365
▁posts	-8366
▁refus	-8367
▁regal	-8368
▁seign	-8369
▁shaft	-8370
▁skies	-8371
▁smack	-8372
▁smith	-8373
▁snake	-8374
▁snout	-8375
▁spain	-8376
▁stark	-8377
▁stirr	-8378
▁stool	-8379
▁sulph	-8380
▁surly	-8381
▁thund	-8382
▁tough	-8383
▁trash	-8384
▁treat	-8385
▁unarm	-8386
fulness	-8387
roversy	-8388
▁abbess	-8389
▁abuses	-8390
▁arrows	-8391
▁barber	-8392
▁basely	-8393
▁begone	-8394
▁blasts	-8395
▁blazon	-8396
▁boughs	-8397
▁breech	-8398
▁broils	-8399
▁calais	-8400
▁chains	-8401
▁cherry	-8402
▁chides	-8403
▁cimber	-8404
▁comedy	-8405
▁compos	-8406
▁costly	-8407
▁dances	-8408
▁dearth	-8409
▁debtor	-8410
▁denial	-8411
▁denies	-8412
▁dragon	-8413
▁engine	-8414
▁enters	-8415
▁faints	-8416
▁famine	-8417
▁finely	-8418
▁fishes	-8419
▁fitter	-8420
▁forged	-8421
▁frenzy	-8422
▁graced	-8423
▁happen	-8424
▁harlot	-8425
▁hidden	-8426
▁hiding	-8427
▁hunter	-8428
▁indent	-8429
▁kindle	-8430
▁levied	-8431
▁lustre	-8432
▁malady	-8433
▁motley	-8434
▁mutius	-8435
▁peruse	-8436
▁proofs	-8437
▁purity	-8438
▁purpos	-8439
▁reveng	-8440
▁riddle	-8441
▁sailor	-8442
▁sheath	-8443
▁sinful	-8444
▁spoils	-8445
▁steeds	-8446
▁stings	-8447
▁subdue	-8448
▁submit	-8449
▁sunder	-8450
▁tinker	-8451
▁tumult	-8452
▁uphold	-8453
▁wheres	-8454
eetheart	-8455
ourished	-8456
▁balance	-8457
▁battery	-8458
▁besiege	-8459
▁blasted	-8460
▁boister	-8461
▁british	-8462
▁brothel	-8463
▁consume	-8464
▁contrad	-8465
▁convert	-8466
▁correct	-8467
▁cozened	-8468
▁element	-8469
▁endless	-8470
▁ensuing	-8471
▁exceeds	-8472
▁forfend	-8473
▁forsook	-8474
▁frailty	-8475
▁fraught	-8476
▁getting	-8477
▁glasses	-8478
▁haughty	-8479
▁howling	-8480
▁imitate	-8481
▁impress	-8482
▁incline	-8483
▁interim	-8484
▁luciana	-8485
▁lunatic	-8486
▁melting	-8487
▁midwife	-8488
▁nearest	-8489
▁pageant	-8490
▁penalty	-8491
▁perfume	-8492
▁phoebus	-8493
▁pigeons	-8494
▁precept	-8495
▁pressed	-8496
▁proudly	-8497
▁proverb	-8498
▁sentine	-8499
▁sighing	-8500
▁strives	-8501
▁suffers	-8502
▁traffic	-8503
▁travail	-8504
▁unquiet	-8505
▁uttered	-8506
▁valeria	-8507
▁vaughan	-8508
▁wedlock	-8509
▁winking	-8510
▁winters	-8511
▁wishing	-8512
▁admitted	-8513
▁applause	-8514
▁beguiled	-8515
▁borachio	-8516
▁capacity	-8517
▁circumst	-8518
▁clamours	-8519
▁colevile	-8520
▁disperse	-8521
▁dreaming	-8522
▁dunghill	-8523
▁entreaty	-8524
▁epilogue	-8525
▁gallants	-8526
▁generous	-8527
▁governed	-8528
▁horsemen	-8529
▁iniquity	-8530
▁justices	-8531
▁lodovico	-8532
▁lucullus	-8533
▁measures	-8534
▁needless	-8535
▁northern	-8536
▁opinions	-8537
▁ordinary	-8538
▁perilous	-8539
▁pindarus	-8540
▁pleading	-8541
▁praising	-8542
▁progress	-8543
▁quantity	-8544
▁recreant	-8545
▁restrain	-8546
▁revolted	-8547
▁rightful	-8548
▁secretly	-8549
▁singular	-8550
▁speedily	-8551
▁surprise	-8552
▁syllable	-8553
▁throwing	-8554
▁virgilia	-8555
▁volumnia	-8556
▁bedfellow	-8557
▁cassandra	-8558
▁damnation	-8559
▁different	-8560
▁donalbain	-8561
▁doubtless	-8562
▁eastcheap	-8563
▁eloquence	-8564
▁emulation	-8565
▁entreated	-8566
▁fourscore	-8567
▁frederick	-8568
▁goldsmith	-8569
▁importune	-8570
▁influence	-8571
▁merriment	-8572
▁nathaniel	-8573
▁ornaments	-8574
▁plebeians	-8575
▁preposter	-8576
▁scattered	-8577
▁servilius	-8578
▁spectacle	-8579
▁throughly	-8580
▁wrestling	-8581
▁accusation	-8582
▁compliment	-8583
▁confounded	-8584
▁degenerate	-8585
▁englishman	-8586
▁generation	-8587
▁impression	-8588
▁jealousies	-8589
▁overthrown	-8590
▁protection	-8591
▁servingmen	-8592
▁substitute	-8593
▁sweetheart	-8594
▁vanquished	-8595
▁controversy	-8596
▁interchange	-8597
▁particulars	-8598
▁slaughtered	-8599
▁strangeness	-8600
▁transformed	-8601
▁unfortunate	-8602
▁contemplation	-8603
20	-8604
44	-8605
oe	-8606
pi	-8607
”!	-8608
▁*	-8609
▁à	-8610
amn	-8611
att	-8612
cap	-8613
dro	-8614
fle	-8615
isk	-8616
ism	-8617
lyd	-8618
sal	-8619
soe	-8620
▁oy	-8621
▁“’	-8622
alas	-8623
aldo	-8624
alem	-8625
amen	-8626
andy	-8627
away	-8628
bbed	-8629
came	-8630
chan	-8631
cold	-8632
enna	-8633
erth	-8634
fish	-8635
fted	-8636
full	-8637
hast	-8638
iced	-8639
inal	-8640
ipes	-8641
itud	-8642
kers	-8643
owls	-8644
robe	-8645
rons	-8646
ston	-8647
vous	-8648
ysim	-8649
▁coy	-8650
▁doe	-8651
▁fen	-8652
▁gay	-8653
▁gen	-8654
▁giv	-8655
▁hym	-8656
▁lau	-8657
▁loo	-8658
▁pig	-8659
▁til	-8660
▁tot	-8661
▁vip	-8662
achus	-8663
amour	-8664
arino	-8665
borne	-8666
cheon	-8667
fleur	-8668
icing	-8669
iting	-8670
ively	-8671
llies	-8672
nance	-8673
orter	-8674
rives	-8675
▁anew	-8676
▁carp	-8677
▁chap	-8678
▁chop	-8679
▁cott	-8680
▁daff	-8681
▁dall	-8682
▁enge	-8683
▁ewes	-8684
▁fest	-8685
▁fife	-8686
▁flee	-8687
▁fram	-8688
▁gert	-8689
▁gnaw	-8690
▁gout	-8691
▁ills	-8692
▁impl	-8693
▁lazy	-8694
▁lick	-8695
▁mand	-8696
▁mard	-8697
▁mead	-8698
▁meal	-8699
▁mire	-8700
▁obst	-8701
▁pith	-8702
▁rent	-8703
▁rous	-8704
▁saye	-8705
▁scra	-8706
▁seed	-8707
▁sess	-8708
▁shru	-8709
▁sixt	-8710
▁size	-8711
▁slut	-8712
▁sola	-8713
▁ster	-8714
▁trod	-8715
▁unpe	-8716
▁unwh	-8717
▁verd	-8718
▁wasp	-8719
apolis	-8720
caesar	-8721
garius	-8722
ically	-8723
kneels	-8724
ossess	-8725
ourage	-8726
pardon	-8727
ptuous	-8728
rehend	-8729
sinore	-8730
spring	-8731
uleius	-8732
untary	-8733
usalem	-8734
▁adorn	-8735
▁amaze	-8736
▁angle	-8737
▁balls	-8738
▁barge	-8739
▁bigot	-8740
▁bites	-8741
▁blade	-8742
▁brood	-8743
▁budge	-8744
▁calam	-8745
▁capon	-8746
▁cases	-8747
▁ceres	-8748
▁coach	-8749
▁cobwe	-8750
▁dames	-8751
▁darts	-8752
▁dined	-8753
▁domin	-8754
▁earls	-8755
▁eclip	-8756
▁engag	-8757
▁exhib	-8758
▁girls	-8759
▁grind	-8760
▁hoist	-8761
▁ingen	-8762
▁james	-8763
▁kites	-8764
▁latin	-8765
▁longs	-8766
▁lysim	-8767
▁maybe	-8768
▁mispr	-8769
▁necks	-8770
▁polyd	-8771
▁pulse	-8772
▁remed	-8773
▁rusty	-8774
▁salve	-8775
▁scald	-8776
▁scale	-8777
▁scold	-8778
▁seals	-8779
▁seeds	-8780
▁shipw	-8781
▁snail	-8782
▁spear	-8783
▁spied	-8784
▁stalk	-8785
▁trace	-8786
▁troph	-8787
▁tunes	-8788
▁uncon	-8789
▁waits	-8790
igation	-8791
itimate	-8792
keeping	-8793
kenbury	-8794
lection	-8795
picious	-8796
spotted	-8797
▁abhors	-8798
▁alonso	-8799
▁antium	-8800
▁argues	-8801
▁asking	-8802
▁assign	-8803
▁assume	-8804
▁betake	-8805
▁betide	-8806
▁bewray	-8807
▁biting	-8808
▁bridge	-8809
▁buckle	-8810
▁chapel	-8811
▁cleave	-8812
▁confin	-8813
▁covert	-8814
▁curtis	-8815
▁derive	-8816
▁devout	-8817
▁disgra	-8818
▁dismay	-8819
▁dispos	-8820
▁dotage	-8821
▁establ	-8822
▁exempt	-8823
▁floods	-8824
▁fondly	-8825
▁formal	-8826
▁framed	-8827
▁freeze	-8828
▁frosty	-8829
▁frozen	-8830
▁gallia	-8831
▁gaping	-8832
▁guides	-8833
▁hammer	-8834
▁incorp	-8835
▁jerkin	-8836
▁knives	-8837
▁laying	-8838
▁legate	-8839
▁misled	-8840
▁morsel	-8841
▁odious	-8842
▁outrun	-8843
▁paltry	-8844
▁perfum	-8845
▁perjur	-8846
▁planet	-8847
▁player	-8848
▁powder	-8849
▁preach	-8850
▁pricks	-8851
▁relief	-8852
▁repeal	-8853
▁repute	-8854
▁revell	-8855
▁sandys	-8856
▁saving	-8857
▁scales	-8858
▁seized	-8859
▁sennet	-8860
▁sexton	-8861
▁shrink	-8862
▁signal	-8863
▁sphere	-8864
▁spider	-8865
▁sprung	-8866
▁sticks	-8867
▁swells	-8868
▁taurus	-8869
▁threes	-8870
▁turtle	-8871
▁unluck	-8872
▁unrest	-8873
▁usurer	-8874
▁vapour	-8875
▁verity	-8876
▁vigour	-8877
▁volume	-8878
▁walked	-8879
▁wester	-8880
coloured	-8881
▁adriana	-8882
▁arrived	-8883
▁begging	-8884
▁bishops	-8885
▁blowing	-8886
▁bondman	-8887
▁britons	-8888
▁carrier	-8889
▁chariot	-8890
▁chiding	-8891
▁chimney	-8892
▁compell	-8893
▁conrade	-8894
▁continu	-8895
▁designs	-8896
▁duteous	-8897
▁engross	-8898
▁environ	-8899
▁follies	-8900
▁fooling	-8901
▁fresher	-8902
▁hearers	-8903
▁hearken	-8904
▁humbled	-8905
▁impeach	-8906
▁imports	-8907
▁invited	-8908
▁justify	-8909
▁leonine	-8910
▁lighted	-8911
▁lightly	-8912
▁mardian	-8913
▁martial	-8914
▁opening	-8915
▁painful	-8916
▁pettico	-8917
▁plagues	-8918
▁pretend	-8919
▁pursued	-8920
▁quicken	-8921
▁reputed	-8922
▁rescued	-8923
▁reserve	-8924
▁retired	-8925
▁retires	-8926
▁seasons	-8927
▁seemeth	-8928
▁senator	-8929
▁sending	-8930
▁sixteen	-8931
▁speaker	-8932
▁spheres	-8933
▁spright	-8934
▁stamped	-8935
▁stealth	-8936
▁trojans	-8937
▁undeser	-8938
▁vicious	-8939
▁watched	-8940
▁weighty	-8941
▁beggarly	-8942
▁building	-8943
▁catching	-8944
▁claudius	-8945
▁construe	-8946
▁conveyed	-8947
▁damnable	-8948
▁demanded	-8949
▁demonstr	-8950
▁dispense	-8951
▁doomsday	-8952
▁drooping	-8953
▁elsinore	-8954
▁entrails	-8955
▁evidence	-8956
▁forswore	-8957
▁gertrude	-8958
▁harfleur	-8959
▁hautboys	-8960
▁hopeless	-8961
▁humorous	-8962
▁huntsman	-8963
▁ligarius	-8964
▁millions	-8965
▁observed	-8966
▁overcome	-8967
▁paradise	-8968
▁pictures	-8969
▁platform	-8970
▁pretence	-8971
▁probable	-8972
▁provoked	-8973
▁provokes	-8974
▁publicly	-8975
▁rashness	-8976
▁resemble	-8977
▁ruthless	-8978
▁salarino	-8979
▁scornful	-8980
▁sixpence	-8981
▁slightly	-8982
▁sweating	-8983
▁sympathy	-8984
▁trencher	-8985
▁unlawful	-8986
▁venetian	-8987
▁vexation	-8988
▁whatever	-8989
▁whispers	-8990
▁wildness	-8991
▁withhold	-8992
▁worshipp	-8993
▁amazement	-8994
▁answering	-8995
▁apartment	-8996
▁arguments	-8997
▁assembled	-8998
▁confessor	-8999
▁cornelius	-9000
▁creditors	-9001
▁diligence	-9002
▁expressly	-9003
▁fearfully	-9004
▁healthful	-9005
▁insulting	-9006
▁jerusalem	-9007
▁minstrels	-9008
▁poisonous	-9009
▁proclaims	-9010
▁remainder	-9011
▁stratagem	-9012
▁suffering	-9013
▁tearsheet	-9014
▁testament	-9015
▁testimony	-9016
▁therewith	-9017
▁voluntary	-9018
▁acceptance	-9019
▁bitterness	-9020
▁boisterous	-9021
▁cheerfully	-9022
▁commonweal	-9023
▁compounded	-9024
▁compulsion	-9025
▁conception	-9026
▁considered	-9027
▁conspiracy	-9028
▁contention	-9029
▁desolation	-9030
▁entreaties	-9031
▁imposition	-9032
▁lysimachus	-9033
▁misfortune	-9034
▁passionate	-9035
▁pentapolis	-9036
▁proculeius	-9037
▁starveling	-9038
▁strengthen	-9039
▁submission	-9040
▁suggestion	-9041
▁understood	-9042
▁wickedness	-9043
▁accordingly	-9044
▁adversaries	-9045
▁conspirator	-9046
▁inclination	-9047
▁indignation	-9048
▁lamentation	-9049
▁marketplace	-9050
▁nightingale	-9051
▁transported	-9052
▁circumstances	-9053
▁transgression	-9054
!)	-9055
.,	-9056
00	-9057
04	-9058
16	-9059
56	-9060
72	-9061
92	-9062
gy	-9063
ha	-9064
la	-9065
mp	-9066
sy	-9067
aby	-9068
bag	-9069
bod	-9070
cas	-9071
cod	-9072
del	-9073
des	-9074
ede	-9075
ept	-9076
had	-9077
hic	-9078
itt	-9079
lis	-9080
mid	-9081
nam	-9082
nod	-9083
oes	-9084
ola	-9085
spe	-9086
ubs	-9087
uge	-9088
vil	-9089
zed	-9090
▁ic	-9091
adel	-9092
anim	-9093
avel	-9094
bers	-9095
bing	-9096
cary	-9097
cile	-9098
cled	-9099
corn	-9100
cted	-9101
cund	-9102
dear	-9103
dens	-9104
ders	-9105
done	-9106
down	-9107
drum	-9108
ifer	-9109
lend	-9110
mast	-9111
onna	-9112
qual	-9113
quel	-9114
quer	-9115
rite	-9116
skin	-9117
song	-9118
sued	-9119
thio	-9120
uits	-9121
worn	-9122
▁alm	-9123
▁ara	-9124
▁bau	-9125
▁bol	-9126
▁cog	-9127
▁dul	-9128
▁ens	-9129
▁ess	-9130
▁gau	-9131
▁gem	-9132
▁hag	-9133
▁hip	-9134
▁hoo	-9135
▁lag	-9136
▁nan	-9137
▁obe	-9138
▁orb	-9139
▁peb	-9140
▁soj	-9141
▁vac	-9142
allel	-9143
blest	-9144
blind	-9145
brain	-9146
ecies	-9147
edges	-9148
erity	-9149
esses	-9150
lisle	-9151
loyal	-9152
month	-9153
opled	-9154
penny	-9155
phurn	-9156
point	-9157
purse	-9158
stock	-9159
swain	-9160
▁barr	-9161
▁beam	-9162
▁bias	-9163
▁bord	-9164
▁brat	-9165
▁card	-9166
▁choo	-9167
▁cope	-9168
▁dale	-9169
▁dawn	-9170
▁deme	-9171
▁demi	-9172
▁depe	-9173
▁dirt	-9174
▁educ	-9175
▁farm	-9176
▁gear	-9177
▁geld	-9178
▁gore	-9179
▁gram	-9180
▁hart	-9181
▁hits	-9182
▁howe	-9183
▁hurl	-9184
▁iden	-9185
▁intr	-9186
▁itch	-9187
▁jaws	-9188
▁laud	-9189
▁lurk	-9190
▁maim	-9191
▁marr	-9192
▁mary	-9193
▁navy	-9194
▁omin	-9195
▁pall	-9196
▁peck	-9197
▁pins	-9198
▁porp	-9199
▁reek	-9200
▁robs	-9201
▁sall	-9202
▁sect	-9203
▁sham	-9204
▁thal	-9205
▁unch	-9206
▁vale	-9207
▁veil	-9208
▁vial	-9209
▁warn	-9210
▁wary	-9211
▁whoe	-9212
▁yawn	-9213
alties	-9214
arnish	-9215
bearer	-9216
ifully	-9217
illion	-9218
illius	-9219
ispers	-9220
keeper	-9221
minded	-9222
offrey	-9223
olycus	-9224
omenes	-9225
ompass	-9226
rament	-9227
rement	-9228
riving	-9229
strong	-9230
ulties	-9231
ustice	-9232
ynaldo	-9233
▁abode	-9234
▁angus	-9235
▁apple	-9236
▁artif	-9237
▁audit	-9238
▁beads	-9239
▁blaze	-9240
▁bower	-9241
▁canon	-9242
▁carve	-9243
▁churl	-9244
▁cleft	-9245
▁coals	-9246
▁daint	-9247
▁decre	-9248
▁dissu	-9249
▁dotes	-9250
▁dropp	-9251
▁enact	-9252
▁endur	-9253
▁equiv	-9254
▁ethio	-9255
▁files	-9256
▁flows	-9257
▁forgo	-9258
▁frets	-9259
▁goats	-9260
▁havoc	-9261
▁herne	-9262
▁hyper	-9263
▁irons	-9264
▁leaps	-9265
▁masqu	-9266
▁medit	-9267
▁midst	-9268
▁mines	-9269
▁moans	-9270
▁pikes	-9271
▁pless	-9272
▁refer	-9273
▁repet	-9274
▁salic	-9275
▁sinon	-9276
▁slips	-9277
▁snuff	-9278
▁spill	-9279
▁spots	-9280
▁spurs	-9281
▁stabs	-9282
▁stare	-9283
▁stony	-9284
▁testy	-9285
▁thump	-9286
▁treas	-9287
▁tribe	-9288
▁twink	-9289
▁unpre	-9290
▁unset	-9291
▁upper	-9292
▁vaunt	-9293
▁votre	-9294
▁waxen	-9295
▁whale	-9296
▁whirl	-9297
angling	-9298
berries	-9299
bleness	-9300
emption	-9301
ershire	-9302
inction	-9303
itories	-9304
kissing	-9305
looking	-9306
monster	-9307
olesome	-9308
phurnia	-9309
strikes	-9310
tainted	-9311
thecary	-9312
uctions	-9313
▁abound	-9314
▁actors	-9315
▁amount	-9316
▁anchor	-9317
▁anyone	-9318
▁aright	-9319
▁attire	-9320
▁awaked	-9321
▁beguil	-9322
▁birnam	-9323
▁bleeds	-9324
▁bonnet	-9325
▁bruise	-9326
▁canopy	-9327
▁caused	-9328
▁chased	-9329
▁coffer	-9330
▁compel	-9331
▁deject	-9332
▁delays	-9333
▁depose	-9334
▁detain	-9335
▁eating	-9336
▁europe	-9337
▁expire	-9338
▁extern	-9339
▁extort	-9340
▁firmly	-9341
▁flinty	-9342
▁foster	-9343
▁girdle	-9344
▁gratis	-9345
▁greasy	-9346
▁greets	-9347
▁grudge	-9348
▁harder	-9349
▁hasten	-9350
▁hecate	-9351
▁imagin	-9352
▁impose	-9353
▁incest	-9354
▁inches	-9355
▁inside	-9356
▁invest	-9357
▁issues	-9358
▁jocund	-9359
▁judged	-9360
▁judges	-9361
▁laughs	-9362
▁lawyer	-9363
▁lecher	-9364
▁livers	-9365
▁madmen	-9366
▁magist	-9367
▁malign	-9368
▁masque	-9369
▁meaner	-9370
▁melody	-9371
▁method	-9372
▁mutton	-9373
▁nicely	-9374
▁obeyed	-9375
▁ostent	-9376
▁ostler	-9377
▁palate	-9378
▁paying	-9379
▁phœbus	-9380
▁pirate	-9381
▁poetry	-9382
▁predom	-9383
▁puppet	-9384
▁purses	-9385
▁rarest	-9386
▁reform	-9387
▁relate	-9388
▁revive	-9389
▁rhymes	-9390
▁severe	-9391
▁shouts	-9392
▁shower	-9393
▁shrift	-9394
▁shrunk	-9395
▁solace	-9396
▁sonnet	-9397
▁sparks	-9398
▁tenour	-9399
▁thrall	-9400
▁treads	-9401
▁tribut	-9402
▁unprov	-9403
▁vainly	-9404
▁verges	-9405
▁vienna	-9406
▁violet	-9407
▁weaver	-9408
▁wheels	-9409
▁wonted	-9410
▁wrench	-9411
gartered	-9412
▁banners	-9413
▁beggary	-9414
▁blister	-9415
▁channel	-9416
▁climate	-9417
▁cordial	-9418
▁corners	-9419
▁covered	-9420
▁decline	-9421
▁decreed	-9422
▁direful	-9423
▁discern	-9424
▁doubted	-9425
▁examine	-9426
▁feigned	-9427
▁fitness	-9428
▁fitting	-9429
▁frankly	-9430
▁gentler	-9431
▁glutton	-9432
▁grapple	-9433
▁gratify	-9434
▁grounds	-9435
▁hastily	-9436
▁hopeful	-9437
▁ignoble	-9438
▁infancy	-9439
▁infants	-9440
▁madonna	-9441
▁members	-9442
▁mermaid	-9443
▁mockery	-9444
▁montjoy	-9445
▁muffled	-9446
▁offends	-9447
▁ominous	-9448
▁outlaws	-9449
▁planted	-9450
▁practis	-9451
▁prelate	-9452
▁proffer	-9453
▁replies	-9454
▁rewards	-9455
▁riotous	-9456
▁robbery	-9457
▁roundly	-9458
▁sequent	-9459
▁stately	-9460
▁summons	-9461
▁supreme	-9462
▁thanked	-9463
▁trusted	-9464
▁unclean	-9465
▁utterly	-9466
▁vapours	-9467
▁victors	-9468
▁violets	-9469
▁wealthy	-9470
▁western	-9471
▁wrestle	-9472
▁achieved	-9473
▁advocate	-9474
▁alehouse	-9475
▁antonius	-9476
▁arrested	-9477
▁attorney	-9478
▁believed	-9479
▁broached	-9480
▁bullcalf	-9481
▁calamity	-9482
▁carlisle	-9483
▁choleric	-9484
▁confines	-9485
▁creeping	-9486
▁curtains	-9487
▁dedicate	-9488
▁departed	-9489
▁determin	-9490
▁disloyal	-9491
▁dissolve	-9492
▁distinct	-9493
▁divinity	-9494
▁drowning	-9495
▁embraced	-9496
▁entirely	-9497
▁factious	-9498
▁fainting	-9499
▁feasting	-9500
▁forester	-9501
▁garlands	-9502
▁geoffrey	-9503
▁gloucest	-9504
▁groaning	-9505
▁hitherto	-9506
▁humanity	-9507
▁importun	-9508
▁impudent	-9509
▁industry	-9510
▁inspired	-9511
▁mariners	-9512
▁marrying	-9513
▁mistaken	-9514
▁multitud	-9515
▁perfumes	-9516
▁poisoned	-9517
▁polydore	-9518
▁precepts	-9519
▁proceeds	-9520
▁puissant	-9521
▁punished	-9522
▁purposed	-9523
▁recovery	-9524
▁shrewdly	-9525
▁statutes	-9526
▁stinking	-9527
▁sunshine	-9528
▁thaliard	-9529
▁thunders	-9530
▁timorous	-9531
▁unjustly	-9532
▁wasteful	-9533
▁watching	-9534
▁worships	-9535
▁wounding	-9536
▁adversary	-9537
▁adversity	-9538
▁allowance	-9539
▁attention	-9540
▁autolycus	-9541
▁betrothed	-9542
▁boatswain	-9543
▁chronicle	-9544
▁cleomenes	-9545
▁concealed	-9546
▁counterpo	-9547
▁courtiers	-9548
▁dispraise	-9549
▁downright	-9550
▁earnestly	-9551
▁expedient	-9552
▁extremely	-9553
▁imaginary	-9554
▁incertain	-9555
▁ingenious	-9556
▁injustice	-9557
▁interrupt	-9558
▁macmorris	-9559
▁mamillius	-9560
▁mistaking	-9561
▁moonlight	-9562
▁offenders	-9563
▁perdition	-9564
▁plainness	-9565
▁puissance	-9566
▁reconcile	-9567
▁sepulchre	-9568
▁smothered	-9569
▁temperate	-9570
▁utterance	-9571
▁volumnius	-9572
▁witnesses	-9573
▁accomplish	-9574
▁admittance	-9575
▁alteration	-9576
▁bedchamber	-9577
▁brakenbury	-9578
▁calphurnia	-9579
▁chatillion	-9580
▁commanders	-9581
▁commanding	-9582
▁contagious	-9583
▁contending	-9584
▁contracted	-9585
▁courtesies	-9586
▁disdainful	-9587
▁dispatched	-9588
▁dissension	-9589
▁guiltiness	-9590
▁headstrong	-9591
▁opposition	-9592
▁playfellow	-9593
▁preferment	-9594
▁prophecies	-9595
▁rebellious	-9596
▁redemption	-9597
▁repetition	-9598
▁succeeding	-9599
▁unhallowed	-9600
▁wilderness	-9601
▁advancement	-9602
▁apprehended	-9603
▁commendable	-9604
▁deliverance	-9605
▁distinction	-9606
▁incorporate	-9607
▁observation	-9608
▁territories	-9609
▁therewithal	-9610
▁unwholesome	-9611
▁chastisement	-9612
▁commendation	-9613
▁confederates	-9614
▁remuneration	-9615
▁wretchedness	-9616
▁gloucestershire	-9617
08	-9618
24	-9619
28	-9620
36	-9621
40	-9622
48	-9623
52	-9624
60	-9625
64	-9626
68	-9627
76	-9628
80	-9629
84	-9630
96	-9631
;”	-9632
azz	-9633
cob	-9634
dis	-9635
dur	-9636
eek	-9637
fie	-9638
fig	-9639
fly	-9640
gom	-9641
imp	-9642
leu	-9643
mod	-9644
occ	-9645
ois	-9646
olf	-9647
put	-9648
▁oo	-9649
!”_]	-9650
ache	-9651
ands	-9652
anes	-9653
asph	-9654
berd	-9655
cass	-9656
dame	-9657
deal	-9658
erog	-9659
fire	-9660
gage	-9661
geus	-9662
gins	-9663
gone	-9664
have	-9665
iens	-9666
ipho	-9667
isto	-9668
keth	-9669
lymp	-9670
mber	-9671
pher	-9672
pipe	-9673
sium	-9674
uman	-9675
vels	-9676
vert	-9677
vice	-9678
word	-9679
zing	-9680
▁aem	-9681
▁bac	-9682
▁coo	-9683
▁eve	-9684
▁fel	-9685
▁flo	-9686
▁fry	-9687
▁ing	-9688
▁lar	-9689
▁nam	-9690
▁org	-9691
▁pag	-9692
▁pry	-9693
▁soo	-9694
▁sot	-9695
▁vag	-9696
▁vat	-9697
ables	-9698
about	-9699
agate	-9700
akers	-9701
ardan	-9702
black	-9703
blown	-9704
catch	-9705
chion	-9706
elled	-9707
gging	-9708
glass	-9709
great	-9710
idias	-9711
ipher	-9712
ldron	-9713
press	-9714
raham	-9715
reech	-9716
stabs	-9717
urbed	-9718
weigh	-9719
whelm	-9720
while	-9721
ymede	-9722
▁abed	-9723
▁anim	-9724
▁awak	-9725
▁bags	-9726
▁bale	-9727
▁bees	-9728
▁beet	-9729
▁besm	-9730
▁bier	-9731
▁buys	-9732
▁camb	-9733
▁club	-9734
▁cups	-9735
▁dice	-9736
▁dieu	-9737
▁disd	-9738
▁dive	-9739
▁doit	-9740
▁drab	-9741
▁duly	-9742
▁dwar	-9743
▁eggs	-9744
▁expe	-9745
▁fard	-9746
▁flew	-9747
▁fust	-9748
▁gape	-9749
▁goat	-9750
▁goth	-9751
▁hale	-9752
▁hild	-9753
▁hint	-9754
▁hive	-9755
▁inve	-9756
▁iris	-9757
▁isis	-9758
▁judg	-9759
▁lass	-9760
▁lect	-9761
▁link	-9762
▁luce	-9763
▁lucy	-9764
▁ment	-9765
▁mond	-9766
▁pens	-9767
▁plea	-9768
▁plun	-9769
▁pred	-9770
▁raim	-9771
▁rats	-9772
▁repl	-9773
▁rhet	-9774
▁rite	-9775
▁russ	-9776
▁sams	-9777
▁scal	-9778
▁scor	-9779
▁sped	-9780
▁stag	-9781
▁thie	-9782
▁tool	-9783
▁uncl	-9784
▁unsw	-9785
▁vall	-9786
▁vary	-9787
▁vict	-9788
▁vult	-9789
▁woos	-9790
▁wren	-9791
apable	-9792
avours	-9793
berate	-9794
ciless	-9795
erlook	-9796
footed	-9797
hastly	-9798
irmish	-9799
itting	-9800
leucus	-9801
monger	-9802
mother	-9803
ontory	-9804
oubted	-9805
rising	-9806
seeing	-9807
spurgh	-9808
umpets	-9809
waking	-9810
witted	-9811
worthy	-9812
▁abbot	-9813
▁alice	-9814
▁aptly	-9815
▁arden	-9816
▁argos	-9817
▁aspir	-9818
▁asses	-9819
▁atone	-9820
▁basil	-9821
▁beest	-9822
▁blust	-9823
▁bowed	-9824
▁butts	-9825
▁camps	-9826
▁cater	-9827
▁caves	-9828
▁chuck	-9829
▁clout	-9830
▁colle	-9831
▁crick	-9832
▁cures	-9833
▁daunt	-9834
▁deity	-9835
▁dirty	-9836
▁displ	-9837
▁dutch	-9838
▁egeus	-9839
▁entom	-9840
▁expos	-9841
▁exten	-9842
▁fails	-9843
▁feels	-9844
▁filth	-9845
▁foils	-9846
▁games	-9847
▁gaudy	-9848
▁hardy	-9849
▁herbs	-9850
▁heret	-9851
▁hobby	-9852
▁hotly	-9853
▁ilion	-9854
▁immin	-9855
▁ivory	-9856
▁jacks	-9857
▁jacob	-9858
▁jolly	-9859
▁juice	-9860
▁kinds	-9861
▁knell	-9862
▁knots	-9863
▁lamps	-9864
▁lease	-9865
▁mater	-9866
▁moons	-9867
▁nostr	-9868
▁obdur	-9869
▁olymp	-9870
▁opens	-9871
▁osric	-9872
▁pence	-9873
▁penet	-9874
▁phryg	-9875
▁pluto	-9876
▁range	-9877
▁rival	-9878
▁rules	-9879
▁shill	-9880
▁sinew	-9881
▁sloth	-9882
▁smock	-9883
▁subdu	-9884
▁tenth	-9885
▁tract	-9886
▁tunis	-9887
▁unadv	-9888
▁unfit	-9889
▁ungra	-9890
▁usher	-9891
▁wheat	-9892
▁whips	-9893
▁wight	-9894
▁windy	-9895
▁wreak	-9896
▁wrote	-9897
blossom	-9898
charged	-9899
entious	-9900
ibility	-9901
ilities	-9902
iphobus	-9903
jection	-9904
ustrate	-9905
▁abides	-9906
▁acting	-9907
▁adding	-9908
▁admits	-9909
▁affair	-9910
▁aliena	-9911
▁ambush	-9912
▁amiens	-9913
▁aspire	-9914
▁autumn	-9915
▁befits	-9916
▁belied	-9917
▁believ	-9918
▁births	-9919
▁blasph	-9920
▁braver	-9921
▁briers	-9922
▁bullen	-9923
▁calend	-9924
▁carved	-9925
▁cherub	-9926
▁choked	-9927
▁claims	-9928
▁clothe	-9929
▁cobweb	-9930
▁comely	-9931
▁commun	-9932
▁courts	-9933
▁damask	-9934
▁dardan	-9935
▁darkly	-9936
▁despis	-9937
▁dispro	-9938
▁domest	-9939
▁drudge	-9940
▁eagles	-9941
▁easier	-9942
▁easter	-9943
▁entice	-9944
▁execut	-9945
▁extemp	-9946
▁family	-9947
▁fasten	-9948
▁folded	-9949
▁ginger	-9950
▁grooms	-9951
▁hearty	-9952
▁humane	-9953
▁inclin	-9954
▁lackey	-9955
▁lances	-9956
▁lenity	-9957
▁liable	-9958
▁limits	-9959
▁litter	-9960
▁lodged	-9961
▁louder	-9962
▁lovest	-9963
▁lowest	-9964
▁mature	-9965
▁mechan	-9966
▁mellow	-9967
▁member	-9968
▁mirror	-9969
▁miscon	-9970
▁misuse	-9971
▁monkey	-9972
▁morton	-9973
▁murmur	-9974
▁myrmid	-9975
▁nerves	-9976
▁oyster	-9977
▁pranks	-9978
▁prayed	-9979
▁prerog	-9980
▁provok	-9981
▁ravens	-9982
▁riding	-9983
▁rigour	-9984
▁rivals	-9985
▁roared	-9986
▁ruined	-9987
▁saddle	-9988
▁sequel	-9989
▁shriek	-9990
▁sleepy	-9991
▁smiled	-9992
▁soften	-9993
▁spices	-9994
▁sprite	-9995
▁staves	-9996
▁strato	-9997
▁sunday	-9998
▁suppli	-9999
▁suppos	-10000
▁tapers	-10001
▁tigers	-10002
▁tragic	-10003
▁tyrrel	-10004
▁valued	-10005
▁viands	-10006
▁weighs	-10007
asonable	-10008
farewell	-10009
istopher	-10010
olerable	-10011
stantial	-10012
whispers	-10013
▁abandon	-10014
▁aediles	-10015
▁alcides	-10016
▁arragon	-10017
▁baggage	-10018
▁berries	-10019
▁bravery	-10020
▁breadth	-10021
▁breaths	-10022
▁breeder	-10023
▁buckram	-10024
▁bullets	-10025
▁burdens	-10026
▁closely	-10027
▁concord	-10028
▁conject	-10029
▁coronet	-10030
▁cottage	-10031
▁couched	-10032
▁crossed	-10033
▁depends	-10034
▁discred	-10035
▁dropped	-10036
▁elysium	-10037
▁engaged	-10038
▁enquire	-10039
▁escaped	-10040
▁filling	-10041
▁flaming	-10042
▁gesture	-10043
▁ghastly	-10044
▁greatly	-10045
▁hapless	-10046
▁harmful	-10047
▁harness	-10048
▁hatches	-10049
▁helenus	-10050
▁hellish	-10051
▁huswife	-10052
▁infring	-10053
▁inhuman	-10054
▁keepers	-10055
▁margery	-10056
▁montano	-10057
▁nations	-10058
▁orphans	-10059
▁paragon	-10060
▁parcels	-10061
▁partake	-10062
▁pertain	-10063
▁plotted	-10064
▁poisons	-10065
▁poorest	-10066
▁popular	-10067
▁presage	-10068
▁profits	-10069
▁prophes	-10070
▁propose	-10071
▁prouder	-10072
▁pursuiv	-10073
▁qualify	-10074
▁quietly	-10075
▁radiant	-10076
▁raiment	-10077
▁refresh	-10078
▁regions	-10079
▁replied	-10080
▁scorned	-10081
▁seventh	-10082
▁sheathe	-10083
▁sprites	-10084
▁staying	-10085
▁stirred	-10086
▁strains	-10087
▁stuffed	-10088
▁stumble	-10089
▁summers	-10090
▁sweeten	-10091
▁swinged	-10092
▁thidias	-10093
▁unworth	-10094
▁usurper	-10095
▁varrius	-10096
▁virgins	-10097
▁visited	-10098
▁whereas	-10099
▁witches	-10100
▁aemilius	-10101
▁bastardy	-10102
▁befriend	-10103
▁bellario	-10104
▁bitterly	-10105
▁bragging	-10106
▁captives	-10107
▁casement	-10108
▁cauldron	-10109
▁confined	-10110
▁conjurer	-10111
▁curtsies	-10112
▁disclaim	-10113
▁discours	-10114
▁dogberry	-10115
▁dukedoms	-10116
▁effected	-10117
▁enriched	-10118
▁esteemed	-10119
▁examples	-10120
▁exclaims	-10121
▁expected	-10122
▁eyeballs	-10123
▁falchion	-10124
▁farthing	-10125
▁fashions	-10126
▁foretell	-10127
▁formerly	-10128
▁ganymede	-10129
▁gorgeous	-10130
▁hallowed	-10131
▁hawthorn	-10132
▁horribly	-10133
▁inferior	-10134
▁insolent	-10135
▁interpre	-10136
▁manifold	-10137
▁merchand	-10138
▁mildness	-10139
▁moderate	-10140
▁mournful	-10141
▁mutinous	-10142
▁overcame	-10143
▁overdone	-10144
▁overtake	-10145
▁passages	-10146
▁peerless	-10147
▁philario	-10148
▁rascally	-10149
▁ravenous	-10150
▁register	-10151
▁remedies	-10152
▁reserved	-10153
▁rhetoric	-10154
▁ruminate	-10155
▁seigneur	-10156
▁seleucus	-10157
▁striking	-10158
▁surnamed	-10159
▁temporal	-10160
▁thinkest	-10161
▁tickling	-10162
▁trembles	-10163
▁unlooked	-10164
▁vanished	-10165
▁watchful	-10166
▁whipping	-10167
▁afterward	-10168
▁appertain	-10169
▁bloodless	-10170
▁boundless	-10171
▁bountiful	-10172
▁captivity	-10173
▁concludes	-10174
▁confirmed	-10175
▁countries	-10176
▁courtship	-10177
▁credulous	-10178
▁deiphobus	-10179
▁distilled	-10180
▁education	-10181
▁encompass	-10182
▁expressed	-10183
▁extremest	-10184
▁fortnight	-10185
▁francisco	-10186
▁functions	-10187
▁greetings	-10188
▁greyhound	-10189
▁imperfect	-10190
▁important	-10191
▁importing	-10192
▁lamenting	-10193
▁lightness	-10194
▁merchants	-10195
▁merciless	-10196
▁monuments	-10197
▁nourished	-10198
▁ordinance	-10199
▁overheard	-10200
▁parchment	-10201
▁petticoat	-10202
▁prettiest	-10203
▁provision	-10204
▁purchased	-10205
▁qualified	-10206
▁residence	-10207
▁sacrament	-10208
▁shillings	-10209
▁sparkling	-10210
▁strongest	-10211
▁suspected	-10212
▁threatens	-10213
▁threefold	-10214
▁translate	-10215
▁truncheon	-10216
▁wiltshire	-10217
▁advantages	-10218
▁artificial	-10219
▁attendance	-10220
▁ceremonies	-10221
▁christians	-10222
▁collatinus	-10223
▁complaints	-10224
▁consecrate	-10225
▁contradict	-10226
▁courageous	-10227
▁discomfort	-10228
▁endeavours	-10229
▁forfeiture	-10230
▁inconstant	-10231
▁indirectly	-10232
▁judgements	-10233
▁legitimate	-10234
▁majestical	-10235
▁meditation	-10236
▁miscarried	-10237
▁obsequious	-10238
▁occupation	-10239
▁porpentine	-10240
▁promontory	-10241
▁pronounced	-10242
▁salutation	-10243
▁spectacles	-10244
▁swallowing	-10245
▁temperance	-10246
▁traitorous	-10247
▁wantonness	-10248
▁appointment	-10249
▁christopher	-10250
▁comparisons	-10251
▁conjunction	-10252
▁continuance	-10253
▁forgiveness	-10254
▁intolerable	-10255
▁perfections	-10256
▁ravenspurgh	-10257
▁soldiership	-10258
▁straightway	-10259
▁troublesome	-10260
▁twelvemonth	-10261
▁conversation	-10262
▁disobedience	-10263
▁embracements	-10264
12	-10265
32	-10266
88	-10267
:_	-10268
oa	-10269
vi	-10270
—’	-10271
agu	-10272
apt	-10273
bbo	-10274
cal	-10275
cox	-10276
ctr	-10277
emy	-10278
fir	-10279
igs	-10280
ivo	-10281
jud	-10282
lin	-10283
oui	-10284
pie	-10285
sol	-10286
tal	-10287
tem	-10288
uzz	-10289
wal	-10290
yed	-10291
zes	-10292
▁mi	-10293
▁“_	-10294
acks	-10295
apen	-10296
azar	-10297
bows	-10298
call	-10299
char	-10300
eaux	-10301
erio	-10302
gged	-10303
gown	-10304
hall	-10305
herd	-10306
hole	-10307
ibel	-10308
icat	-10309
icet	-10310
keys	-10311
lder	-10312
lips	-10313
llor	-10314
lord	-10315
oung	-10316
pare	-10317
pick	-10318
poor	-10319
post	-10320
pray	-10321
rick	-10322
ride	-10323
ripe	-10324
ront	-10325
sers	-10326
show	-10327
tail	-10328
tery	-10329
test	-10330
uity	-10331
ulph	-10332
urbs	-10333
view	-10334
wark	-10335
wink	-10336
wood	-10337
xter	-10338
yton	-10339
▁amp	-10340
▁apo	-10341
▁asp	-10342
▁aus	-10343
▁civ	-10344
▁cod	-10345
▁dan	-10346
▁dye	-10347
▁eff	-10348
▁eke	-10349
▁erp	-10350
▁fog	-10351
▁haz	-10352
▁hob	-10353
▁jet	-10354
▁lud	-10355
▁ree	-10356
▁scy	-10357
▁sou	-10358
▁tan	-10359
▁tas	-10360
▁vom	-10361
adles	-10362
amnum	-10363
arned	-10364
bbing	-10365
cheek	-10366
drawn	-10367
drops	-10368
ernes	-10369
falls	-10370
going	-10371
grown	-10372
idity	-10373
iency	-10374
ighty	-10375
igned	-10376
inces	-10377
inher	-10378
ioned	-10379
isome	-10380
ivial	-10381
lower	-10382
mandy	-10383
metic	-10384
oused	-10385
pable	-10386
peius	-10387
rable	-10388
ribut	-10389
shill	-10390
shout	-10391
speak	-10392
tling	-10393
ubber	-10394
uncle	-10395
venal	-10396
would	-10397
young	-10398
▁awry	-10399
▁bash	-10400
▁beak	-10401
▁besp	-10402
▁bode	-10403
▁boil	-10404
▁bran	-10405
▁cage	-10406
▁carn	-10407
▁cate	-10408
▁cows	-10409
▁dane	-10410
▁dazz	-10411
▁effe	-10412
▁epid	-10413
▁fitz	-10414
▁flap	-10415
▁flaw	-10416
▁flax	-10417
▁fron	-10418
▁gamb	-10419
▁garb	-10420
▁gibb	-10421
▁gobl	-10422
▁hagg	-10423
▁hies	-10424
▁hoof	-10425
▁kick	-10426
▁lace	-10427
▁lake	-10428
▁lawn	-10429
▁lieu	-10430
▁logs	-10431
▁mall	-10432
▁mare	-10433
▁nurs	-10434
▁orig	-10435
▁owen	-10436
▁oxen	-10437
▁parr	-10438
▁peal	-10439
▁pile	-10440
▁plod	-10441
▁puny	-10442
▁rais	-10443
▁real	-10444
▁reft	-10445
▁resp	-10446
▁sage	-10447
▁sard	-10448
▁scab	-10449
▁semp	-10450
▁shin	-10451
▁shoo	-10452
▁skip	-10453
▁snug	-10454
▁soar	-10455
▁stem	-10456
▁swer	-10457
▁verb	-10458
▁wage	-10459
▁warp	-10460
▁yard	-10461
arcite	-10462
colour	-10463
ctrine	-10464
elcome	-10465
ensive	-10466
enting	-10467
entive	-10468
ertake	-10469
ighted	-10470
itchen	-10471
morrow	-10472
odious	-10473
pected	-10474
ptions	-10475
raught	-10476
ribute	-10477
ronius	-10478
rowing	-10479
shapen	-10480
stairs	-10481
temand	-10482
uation	-10483
▁agony	-10484
▁alder	-10485
▁amber	-10486
▁arrow	-10487
▁aston	-10488
▁awful	-10489
▁bated	-10490
▁berry	-10491
▁bonny	-10492
▁brags	-10493
▁brist	-10494
▁broil	-10495
▁brush	-10496
▁chanc	-10497
▁chick	-10498
▁clubs	-10499
▁conjo	-10500
▁dealt	-10501
▁ditty	-10502
▁drove	-10503
▁emily	-10504
▁enven	-10505
▁exche	-10506
▁exton	-10507
▁filch	-10508
▁fling	-10509
▁flown	-10510
▁flute	-10511
▁galls	-10512
▁geese	-10513
▁graze	-10514
▁gusts	-10515
▁gyves	-10516
▁hered	-10517
▁herod	-10518
▁holes	-10519
▁holof	-10520
▁hover	-10521
▁idiot	-10522
▁immod	-10523
▁india	-10524
▁liars	-10525
▁limed	-10526
▁lined	-10527
▁melts	-10528
▁melun	-10529
▁newer	-10530
▁ninth	-10531
▁organ	-10532
▁outst	-10533
▁pease	-10534
▁pines	-10535
▁pipes	-10536
▁plume	-10537
▁poise	-10538
▁prede	-10539
▁puppy	-10540
▁quint	-10541
▁rides	-10542
▁riots	-10543
▁ruins	-10544
▁satan	-10545
▁scare	-10546
▁scoff	-10547
▁scots	-10548
▁shack	-10549
▁shuff	-10550
▁shuts	-10551
▁sicil	-10552
▁sores	-10553
▁steer	-10554
▁stint	-10555
▁surge	-10556
▁swarm	-10557
▁sways	-10558
▁syria	-10559
▁tends	-10560
▁tiber	-10561
▁tithe	-10562
▁toads	-10563
▁trail	-10564
▁unacc	-10565
▁unapt	-10566
▁unity	-10567
▁unple	-10568
▁verge	-10569
▁vigil	-10570
▁waked	-10571
▁weeks	-10572
▁whelp	-10573
▁whipp	-10574
burning	-10575
ceiving	-10576
deliver	-10577
drawing	-10578
ensions	-10579
entimes	-10580
ipotent	-10581
itution	-10582
morland	-10583
mouthed	-10584
seeming	-10585
thunder	-10586
▁accost	-10587
▁across	-10588
▁admire	-10589
▁agrees	-10590
▁amazon	-10591
▁august	-10592
▁backed	-10593
▁bauble	-10594
▁bedlam	-10595
▁bellow	-10596
▁briton	-10597
▁broker	-10598
▁brooks	-10599
▁burned	-10600
▁cadwal	-10601
▁cambio	-10602
▁chafed	-10603
▁checks	-10604
▁clears	-10605
▁clergy	-10606
▁clitus	-10607
▁convoy	-10608
▁copper	-10609
▁counts	-10610
▁decays	-10611
▁deform	-10612
▁demean	-10613
▁detect	-10614
▁dexter	-10615
▁dolour	-10616
▁doubly	-10617
▁emboss	-10618
▁enjoin	-10619
▁enjoys	-10620
▁ensign	-10621
▁ensues	-10622
▁excels	-10623
▁faiths	-10624
▁fardel	-10625
▁fleece	-10626
▁flocks	-10627
▁forked	-10628
▁glamis	-10629
▁grapes	-10630
▁graver	-10631
▁grease	-10632
▁hacked	-10633
▁hermit	-10634
▁hoarse	-10635
▁hoping	-10636
▁hotter	-10637
▁incont	-10638
▁indian	-10639
▁induce	-10640
▁infall	-10641
▁jester	-10642
▁lacked	-10643
▁lastly	-10644
▁lesson	-10645
▁liquid	-10646
▁loaden	-10647
▁luxury	-10648
▁massac	-10649
▁mildly	-10650
▁minded	-10651
▁modern	-10652
▁monast	-10653
▁neapol	-10654
▁nether	-10655
▁nettle	-10656
▁openly	-10657
▁organs	-10658
▁orient	-10659
▁packet	-10660
▁pawned	-10661
▁pepper	-10662
▁perils	-10663
▁poorly	-10664
▁posted	-10665
▁progen	-10666
▁refuge	-10667
▁restor	-10668
▁rooted	-10669
▁rudely	-10670
▁samson	-10671
▁sconce	-10672
▁seyton	-10673
▁shifts	-10674
▁shirts	-10675
▁sicken	-10676
▁solely	-10677
▁sorcer	-10678
▁stormy	-10679
▁strugg	-10680
▁tallow	-10681
▁thames	-10682
▁thorny	-10683
▁thwart	-10684
▁transl	-10685
▁tumble	-10686
▁unborn	-10687
▁uncles	-10688
▁urging	-10689
▁waited	-10690
▁waving	-10691
▁wooden	-10692
▁wooers	-10693
▁yeoman	-10694
idelicet	-10695
ithmetic	-10696
pointing	-10697
trumpets	-10698
▁abraham	-10699
▁accents	-10700
▁affects	-10701
▁amiable	-10702
▁arrival	-10703
▁attaint	-10704
▁authors	-10705
▁avoided	-10706
▁baleful	-10707
▁bourbon	-10708
▁bruised	-10709
▁buckled	-10710
▁cancell	-10711
▁candles	-10712
▁carcass	-10713
▁charmed	-10714
▁citadel	-10715
▁congreg	-10716
▁contemn	-10717
▁convent	-10718
▁corinth	-10719
▁counted	-10720
▁coupled	-10721
▁courser	-10722
▁cutting	-10723
▁decease	-10724
▁defects	-10725
▁devoted	-10726
▁doubled	-10727
▁drawing	-10728
▁dungeon	-10729
▁earthqu	-10730
▁eastern	-10731
▁enjoyed	-10732
▁estates	-10733
▁evident	-10734
▁excuses	-10735
▁failing	-10736
▁fastolf	-10737
▁foresee	-10738
▁fortify	-10739
▁gentles	-10740
▁ghostly	-10741
▁godlike	-10742
▁halting	-10743
▁haunted	-10744
▁helping	-10745
▁herbert	-10746
▁hilding	-10747
▁impious	-10748
▁juvenal	-10749
▁kindled	-10750
▁knavish	-10751
▁lacking	-10752
▁laments	-10753
▁lawless	-10754
▁letting	-10755
▁lustful	-10756
▁merrier	-10757
▁musical	-10758
▁nettles	-10759
▁oration	-10760
▁packing	-10761
▁palaces	-10762
▁pardons	-10763
▁parthia	-10764
▁partial	-10765
▁passeng	-10766
▁pierced	-10767
▁planets	-10768
▁plaster	-10769
▁portion	-10770
▁praying	-10771
▁pricked	-10772
▁puritan	-10773
▁railing	-10774
▁refused	-10775
▁reigned	-10776
▁release	-10777
▁replete	-10778
▁reprove	-10779
▁royally	-10780
▁rushing	-10781
▁salerio	-10782
▁screech	-10783
▁shipped	-10784
▁skilful	-10785
▁slavish	-10786
▁sleeves	-10787
▁sojourn	-10788
▁solanio	-10789
▁sparrow	-10790
▁suburbs	-10791
▁superst	-10792
▁surmise	-10793
▁swiftly	-10794
▁tailors	-10795
▁teaches	-10796
▁testify	-10797
▁thereon	-10798
▁thirsty	-10799
▁travels	-10800
▁tresses	-10801
▁trivial	-10802
▁turkish	-10803
▁uncivil	-10804
▁unclasp	-10805
▁unmatch	-10806
▁usurped	-10807
▁vessels	-10808
▁villany	-10809
▁weighed	-10810
▁wisdoms	-10811
▁workman	-10812
▁abhorson	-10813
▁abstract	-10814
▁adultery	-10815
▁almighty	-10816
▁anywhere	-10817
▁becoming	-10818
▁benefits	-10819
▁bestride	-10820
▁blossoms	-10821
▁bordeaux	-10822
▁brandish	-10823
▁breeches	-10824
▁calendar	-10825
▁campeius	-10826
▁canidius	-10827
▁cloister	-10828
▁commence	-10829
▁conflict	-10830
▁conspire	-10831
▁controll	-10832
▁covering	-10833
▁december	-10834
▁deflower	-10835
▁delivers	-10836
▁desolate	-10837
▁discreet	-10838
▁diseased	-10839
▁dissuade	-10840
▁doctrine	-10841
▁domestic	-10842
▁doubting	-10843
▁enjoying	-10844
▁entering	-10845
▁external	-10846
▁factions	-10847
▁famished	-10848
▁gadshill	-10849
▁gamester	-10850
▁gathered	-10851
▁generals	-10852
▁graceful	-10853
▁grieving	-10854
▁helpless	-10855
▁honestly	-10856
▁imminent	-10857
▁jourdain	-10858
▁liveries	-10859
▁magnanim	-10860
▁mannerly	-10861
▁measured	-10862
▁mightier	-10863
▁military	-10864
▁misdoubt	-10865
▁mounting	-10866
▁noblemen	-10867
▁normandy	-10868
▁obdurate	-10869
▁obscured	-10870
▁ordnance	-10871
▁overlook	-10872
▁overween	-10873
▁pandulph	-10874
▁persever	-10875
▁porridge	-10876
▁profaned	-10877
▁proposed	-10878
▁recorded	-10879
▁regiment	-10880
▁relation	-10881
▁required	-10882
▁reverent	-10883
▁securely	-10884
▁serpents	-10885
▁sinister	-10886
▁skirmish	-10887
▁slippery	-10888
▁solemnly	-10889
▁somebody	-10890
▁spaniard	-10891
▁striving	-10892
▁strucken	-10893
▁suppress	-10894
▁timeless	-10895
▁tragical	-10896
▁trenches	-10897
▁unthrift	-10898
▁valerius	-10899
▁variable	-10900
▁ventured	-10901
▁volscian	-10902
▁welcomes	-10903
▁wheresoe	-10904
▁wherever	-10905
▁womanish	-10906
▁wondered	-10907
▁woodcock	-10908
▁wrestler	-10909
▁accompany	-10910
▁antiquity	-10911
▁audacious	-10912
▁belonging	-10913
▁butchered	-10914
▁carefully	-10915
▁certainty	-10916
▁commotion	-10917
▁companies	-10918
▁compelled	-10919
▁conceited	-10920
▁congealed	-10921
▁consorted	-10922
▁constrain	-10923
▁contagion	-10924
▁dalliance	-10925
▁deceitful	-10926
▁deceiving	-10927
▁destroyed	-10928
▁dominions	-10929
▁elsewhere	-10930
▁environed	-10931
▁epidamnum	-10932
▁erpingham	-10933
▁expecting	-10934
▁faculties	-10935
▁feelingly	-10936
▁fishermen	-10937
▁fitzwater	-10938
▁housewife	-10939
▁howsoever	-10940
▁hypocrite	-10941
▁intellect	-10942
▁intercept	-10943
▁mischiefs	-10944
▁momentary	-10945
▁obsequies	-10946
▁observing	-10947
▁offending	-10948
▁offspring	-10949
▁pestilent	-10950
▁practised	-10951
▁preserved	-10952
▁professed	-10953
▁professes	-10954
▁reprehend	-10955
▁secretary	-10956
▁shameless	-10957
▁spiritual	-10958
▁sprightly	-10959
▁sufficeth	-10960
▁thereupon	-10961
▁tributary	-10962
▁unsettled	-10963
▁unspotted	-10964
▁untainted	-10965
▁volscians	-10966
▁voltemand	-10967
▁wandering	-10968
▁apothecary	-10969
▁auspicious	-10970
▁challenged	-10971
▁chancellor	-10972
▁changeling	-10973
▁comparison	-10974
▁conquerors	-10975
▁constantly	-10976
▁conveyance	-10977
▁delightful	-10978
▁despairing	-10979
▁despiteful	-10980
▁effeminate	-10981
▁hereditary	-10982
▁holofernes	-10983
▁honourably	-10984
▁increasing	-10985
▁lineaments	-10986
▁multitudes	-10987
▁oftentimes	-10988
▁physicians	-10989
▁procession	-10990
▁recreation	-10991
▁repentance	-10992
▁resembling	-10993
▁revengeful	-10994
▁sanctified	-10995
▁subjection	-10996
▁swaggering	-10997
▁syracusian	-10998
▁thankfully	-10999
▁throughout	-11000
▁travellers	-11001
▁ungracious	-11002
▁unprovided	-11003
▁wrongfully	-11004
▁battlements	-11005
▁brotherhood	-11006
▁complexions	-11007
▁confederate	-11008
▁differences	-11009
▁discontents	-11010
▁gentlewomen	-11011
▁impediments	-11012
▁merchandise	-11013
▁necessaries	-11014
▁quarrelling	-11015
▁religiously	-11016
▁shepherdess	-11017
▁westmorland	-11018
▁confirmation	-11019
▁construction	-11020
▁instructions	-11021
▁peaseblossom	-11022
▁preposterous	-11023
▁consideration	-11024
;_	-11025
eb	-11026
ma	-11027
te	-11028
wr	-11029
—“	-11030
’!	-11031
amo	-11032
aos	-11033
auf	-11034
bet	-11035
has	-11036
idd	-11037
lie	-11038
lip	-11039
low	-11040
oom	-11041
opp	-11042
pré	-11043
psa	-11044
rig	-11045
rim	-11046
rul	-11047
sim	-11048
ugn	-11049
ulg	-11050
ums	-11051
▁ot	-11052
▁um	-11053
agre	-11054
alks	-11055
atre	-11056
auca	-11057
bber	-11058
berg	-11059
bird	-11060
bolt	-11061
bone	-11062
cine	-11063
coln	-11064
disp	-11065
eros	-11066
five	-11067
hail	-11068
hard	-11069
horn	-11070
iars	-11071
ills	-11072
iors	-11073
iots	-11074
ists	-11075
itae	-11076
lion	-11077
lves	-11078
mary	-11079
mend	-11080
mers	-11081
nery	-11082
occo	-11083
olog	-11084
onds	-11085
onge	-11086
pres	-11087
pter	-11088
rack	-11089
reep	-11090
rehe	-11091
rent	-11092
roar	-11093
roph	-11094
shed	-11095
shot	-11096
suck	-11097
tale	-11098
tham	-11099
tole	-11100
turn	-11101
uble	-11102
ults	-11103
urer	-11104
usky	-11105
wing	-11106
▁abj	-11107
▁bak	-11108
▁bav	-11109
▁eel	-11110
▁foh	-11111
▁fum	-11112
▁gal	-11113
▁gig	-11114
▁icy	-11115
▁ivy	-11116
▁ker	-11117
▁laz	-11118
▁maw	-11119
▁mix	-11120
▁pac	-11121
▁ply	-11122
▁rho	-11123
▁soe	-11124
▁tew	-11125
▁thw	-11126
▁vic	-11127
▁vie	-11128
▁xii	-11129
agant	-11130
aging	-11131
arage	-11132
asies	-11133
astes	-11134
athed	-11135
atisf	-11136
aying	-11137
beats	-11138
berds	-11139
break	-11140
cetus	-11141
corax	-11142
doing	-11143
earth	-11144
elbow	-11145
ember	-11146
enish	-11147
ented	-11148
fixed	-11149
flies	-11150
grave	-11151
heart	-11152
idele	-11153
iders	-11154
idore	-11155
ients	-11156
igate	-11157
itied	-11158
iture	-11159
lfare	-11160
locks	-11161
mercy	-11162
ondam	-11163
ooped	-11164
oving	-11165
rated	-11166
rious	-11167
roses	-11168
stool	-11169
thage	-11170
tharg	-11171
these	-11172
ucket	-11173
ulent	-11174
ustom	-11175
utius	-11176
weary	-11177
▁adds	-11178
▁alis	-11179
▁andr	-11180
▁aqua	-11181
▁aven	-11182
▁beer	-11183
▁begs	-11184
▁beho	-11185
▁beld	-11186
▁bits	-11187
▁blab	-11188
▁broo	-11189
▁cart	-11190
▁cash	-11191
▁chew	-11192
▁clad	-11193
▁colt	-11194
▁craw	-11195
▁cres	-11196
▁crue	-11197
▁cuff	-11198
▁dais	-11199
▁disb	-11200
▁doff	-11201
▁drug	-11202
▁dues	-11203
▁dyed	-11204
▁ebbs	-11205
▁ench	-11206
▁erst	-11207
▁fade	-11208
▁forn	-11209
▁frog	-11210
▁fume	-11211
▁glim	-11212
▁gray	-11213
▁hips	-11214
▁hoop	-11215
▁hymn	-11216
▁irre	-11217
▁kite	-11218
▁lain	-11219
▁larg	-11220
▁leak	-11221
▁luke	-11222
▁lump	-11223
▁mace	-11224
▁mong	-11225
▁monk	-11226
▁musk	-11227
▁nods	-11228
▁oaks	-11229
▁ooze	-11230
▁owed	-11231
▁parl	-11232
▁pell	-11233
▁pend	-11234
▁pool	-11235
▁ramp	-11236
▁rebu	-11237
▁remn	-11238
▁ribb	-11239
▁shak	-11240
▁soph	-11241
▁sque	-11242
▁sued	-11243
▁teem	-11244
▁teen	-11245
▁tere	-11246
▁thra	-11247
▁tues	-11248
▁turb	-11249
▁turf	-11250
▁unaw	-11251
▁unbr	-11252
▁ungr	-11253
▁unsc	-11254
▁unsk	-11255
▁unus	-11256
▁upli	-11257
▁vaux	-11258
▁ware	-11259
▁warr	-11260
actors	-11261
adders	-11262
ampson	-11263
anting	-11264
askets	-11265
asters	-11266
basket	-11267
beseem	-11268
cerity	-11269
coriol	-11270
erbear	-11271
gomery	-11272
handed	-11273
hement	-11274
iation	-11275
icates	-11276
ieties	-11277
ifying	-11278
ilemon	-11279
inated	-11280
inders	-11281
itated	-11282
ixture	-11283
kisses	-11284
laying	-11285
makers	-11286
omache	-11287
oughby	-11288
parent	-11289
passes	-11290
render	-11291
ripple	-11292
ronted	-11293
simple	-11294
stones	-11295
strate	-11296
urious	-11297
urnish	-11298
▁aches	-11299
▁acted	-11300
▁aginc	-11301
▁bandy	-11302
▁barks	-11303
▁basin	-11304
▁basis	-11305
▁bawds	-11306
▁beach	-11307
▁beset	-11308
▁boats	-11309
▁brach	-11310
▁brawn	-11311
▁brent	-11312
▁brick	-11313
▁brier	-11314
▁bunch	-11315
▁caper	-11316
▁cargo	-11317
▁caval	-11318
▁centa	-11319
▁chaos	-11320
▁cheat	-11321
▁chron	-11322
▁cited	-11323
▁coral	-11324
▁cough	-11325
▁coven	-11326
▁cream	-11327
▁crook	-11328
▁crust	-11329
▁dared	-11330
▁denny	-11331
▁depth	-11332
▁doers	-11333
▁ducat	-11334
▁dusky	-11335
▁eleph	-11336
▁elves	-11337
▁endow	-11338
▁engra	-11339
▁epith	-11340
▁excel	-11341
▁excus	-11342
▁exits	-11343
▁filed	-11344
▁finer	-11345
▁flash	-11346
▁forer	-11347
▁fraud	-11348
▁gazed	-11349
▁gazes	-11350
▁gnats	-11351
▁gobbo	-11352
▁grape	-11353
▁hairy	-11354
▁heaps	-11355
▁herds	-11356
▁hinds	-11357
▁hoard	-11358
▁hurly	-11359
▁immac	-11360
▁jewry	-11361
▁latch	-11362
▁laund	-11363
▁licio	-11364
▁lobby	-11365
▁lucky	-11366
▁mason	-11367
▁mated	-11368
▁meads	-11369
▁mopsa	-11370
▁musty	-11371
▁needy	-11372
▁nilus	-11373
▁nomin	-11374
▁obeys	-11375
▁odour	-11376
▁paces	-11377
▁pagan	-11378
▁pense	-11379
▁perus	-11380
▁piety	-11381
▁plack	-11382
▁quart	-11383
▁quell	-11384
▁rails	-11385
▁repul	-11386
▁roars	-11387
▁roast	-11388
▁roger	-11389
▁ruler	-11390
▁sable	-11391
▁sandy	-11392
▁sched	-11393
▁scout	-11394
▁seats	-11395
▁shell	-11396
▁shock	-11397
▁shunn	-11398
▁smelt	-11399
▁smoky	-11400
▁spade	-11401
▁strip	-11402
▁strut	-11403
▁synod	-11404
▁tides	-11405
▁tires	-11406
▁turks	-11407
▁twins	-11408
▁unite	-11409
▁unres	-11410
▁usual	-11411
▁vexed	-11412
▁victu	-11413
ability	-11414
atement	-11415
dealing	-11416
ensible	-11417
fathers	-11418
fitable	-11419
ostrate	-11420
rehends	-11421
singing	-11422
tongued	-11423
▁accurs	-11424
▁active	-11425
▁allied	-11426
▁anatom	-11427
▁apolog	-11428
▁appell	-11429
▁arrive	-11430
▁baboon	-11431
▁barons	-11432
▁bearer	-11433
▁beaver	-11434
▁begets	-11435
▁bended	-11436
▁betime	-11437
▁blench	-11438
▁brands	-11439
▁bridal	-11440
▁bridle	-11441
▁broach	-11442
▁builds	-11443
▁caphis	-11444
▁catech	-11445
▁chairs	-11446
▁cheers	-11447
▁chests	-11448
▁chough	-11449
▁cipher	-11450
▁closed	-11451
▁clowns	-11452
▁comest	-11453
▁creeps	-11454
▁curled	-11455
▁damsel	-11456
▁danced	-11457
▁daniel	-11458
▁danish	-11459
▁darest	-11460
▁darken	-11461
▁defile	-11462
▁define	-11463
▁demure	-11464
▁dimmed	-11465
▁discol	-11466
▁drowns	-11467
▁earthy	-11468
▁embark	-11469
▁encamp	-11470
▁engend	-11471
▁expert	-11472
▁expost	-11473
▁extant	-11474
▁fading	-11475
▁fealty	-11476
▁fester	-11477
▁fidele	-11478
▁fulfil	-11479
▁gambol	-11480
▁gashes	-11481
▁greedy	-11482
▁hearer	-11483
▁helmet	-11484
▁hunted	-11485
▁idolat	-11486
▁incite	-11487
▁issued	-11488
▁kennel	-11489
▁legacy	-11490
▁libert	-11491
▁lineal	-11492
▁lordly	-11493
▁lubber	-11494
▁lucret	-11495
▁magnif	-11496
▁mandra	-11497
▁marian	-11498
▁marrow	-11499
▁meagre	-11500
▁mickle	-11501
▁minola	-11502
▁monday	-11503
▁mounts	-11504
▁multip	-11505
▁needle	-11506
▁ordain	-11507
▁partis	-11508
▁pedlar	-11509
▁portly	-11510
▁pottle	-11511
▁prized	-11512
▁pulled	-11513
▁purest	-11514
▁quiver	-11515
▁rashly	-11516
▁recoil	-11517
▁reliev	-11518
▁remiss	-11519
▁reserv	-11520
▁reveal	-11521
▁safest	-11522
▁sardis	-11523
▁scarus	-11524
▁scenes	-11525
▁scythe	-11526
▁selves	-11527
▁shoots	-11528
▁shrine	-11529
▁slowly	-11530
▁snakes	-11531
▁sorely	-11532
▁source	-11533
▁spared	-11534
▁spurns	-11535
▁stable	-11536
▁stairs	-11537
▁stamps	-11538
▁stewed	-11539
▁stored	-11540
▁straws	-11541
▁streak	-11542
▁stride	-11543
▁string	-11544
▁suited	-11545
▁supple	-11546
▁tartar	-11547
▁tasted	-11548
▁tempts	-11549
▁tennis	-11550
▁thanes	-11551
▁timely	-11552
▁trades	-11553
▁treaty	-11554
▁trudge	-11555
▁truths	-11556
▁unable	-11557
▁uneven	-11558
▁unhand	-11559
▁unsure	-11560
▁untrue	-11561
▁utters	-11562
▁vacant	-11563
▁waggon	-11564
▁wanted	-11565
▁warmed	-11566
▁washes	-11567
▁weasel	-11568
▁welcom	-11569
▁whiter	-11570
▁wholly	-11571
▁winner	-11572
▁youths	-11573
atisfied	-11574
begotten	-11575
changing	-11576
erthrown	-11577
governed	-11578
▁ability	-11579
▁abridge	-11580
▁adopted	-11581
▁anguish	-11582
▁anthony	-11583
▁arraign	-11584
▁athwart	-11585
▁austere	-11586
▁bashful	-11587
▁bespeak	-11588
▁bestrid	-11589
▁boarded	-11590
▁brandon	-11591
▁bristol	-11592
▁brittle	-11593
▁castles	-11594
▁caution	-11595
▁charter	-11596
▁cheater	-11597
▁cleanly	-11598
▁clouded	-11599
▁confisc	-11600
▁consuls	-11601
▁consumm	-11602
▁courtly	-11603
▁crammed	-11604
▁cripple	-11605
▁cushion	-11606
▁darling	-11607
▁dastard	-11608
▁dawning	-11609
▁declare	-11610
▁defaced	-11611
▁defiled	-11612
▁denying	-11613
▁discomf	-11614
▁distill	-11615
▁doleful	-11616
▁dolphin	-11617
▁dowager	-11618
▁dragons	-11619
▁drawers	-11620
▁dreamed	-11621
▁enthron	-11622
▁equivoc	-11623
▁escanes	-11624
▁esquire	-11625
▁exactly	-11626
▁excused	-11627
▁expired	-11628
▁eyeless	-11629
▁fawning	-11630
▁fingres	-11631
▁forbids	-11632
▁freshly	-11633
▁frights	-11634
▁gallops	-11635
▁germany	-11636
▁gossips	-11637
▁habited	-11638
▁heedful	-11639
▁heretic	-11640
▁highway	-11641
▁holland	-11642
▁impiety	-11643
▁implore	-11644
▁isidore	-11645
▁kitchen	-11646
▁kneeled	-11647
▁letharg	-11648
▁license	-11649
▁lincoln	-11650
▁lioness	-11651
▁lucifer	-11652
▁lullaby	-11653
▁marches	-11654
▁martext	-11655
▁merited	-11656
▁meteors	-11657
▁morocco	-11658
▁mortals	-11659
▁moulded	-11660
▁nephews	-11661
▁nunnery	-11662
▁olympus	-11663
▁orderly	-11664
▁pantino	-11665
▁patched	-11666
▁pelting	-11667
▁perturb	-11668
▁pillage	-11669
▁prattle	-11670
▁prolong	-11671
▁pursues	-11672
▁rancour	-11673
▁regards	-11674
▁resides	-11675
▁revolts	-11676
▁richest	-11677
▁robbers	-11678
▁robbing	-11679
▁roughly	-11680
▁ruinous	-11681
▁salutes	-11682
▁sampson	-11683
▁seconds	-11684
▁sharper	-11685
▁shorter	-11686
▁soonest	-11687
▁spaniel	-11688
▁sparing	-11689
▁staring	-11690
▁station	-11691
▁steeled	-11692
▁stephen	-11693
▁stories	-11694
▁sucking	-11695
▁sycorax	-11696
▁tearing	-11697
▁teeming	-11698
▁tending	-11699
▁terrors	-11700
▁theatre	-11701
▁thicket	-11702
▁throngs	-11703
▁tickled	-11704
▁trained	-11705
▁travers	-11706
▁trimmed	-11707
▁trodden	-11708
▁tuesday	-11709
▁tumbled	-11710
▁unspeak	-11711
▁usurers	-11712
▁vassals	-11713
▁venison	-11714
▁verdict	-11715
▁village	-11716
▁violate	-11717
▁vulture	-11718
▁wailing	-11719
▁wanteth	-11720
▁weakest	-11721
▁welfare	-11722
▁widower	-11723
▁winding	-11724
▁writers	-11725
▁zealous	-11726
beseeming	-11727
▁accommod	-11728
▁admiring	-11729
▁anchient	-11730
▁aspiring	-11731
▁assemble	-11732
▁attempts	-11733
▁babbling	-11734
▁barefoot	-11735
▁butchers	-11736
▁carthage	-11737
▁celerity	-11738
▁chastise	-11739
▁civility	-11740
▁climbing	-11741
▁coloured	-11742
▁consumed	-11743
▁contrive	-11744
▁creditor	-11745
▁crickets	-11746
▁currents	-11747
▁deceased	-11748
▁declined	-11749
▁dejected	-11750
▁dercetus	-11751
▁desiring	-11752
▁desirous	-11753
▁devoured	-11754
▁dialogue	-11755
▁disinher	-11756
▁divorced	-11757
▁downfall	-11758
▁downward	-11759
▁embossed	-11760
▁embraces	-11761
▁eminence	-11762
▁enrolled	-11763
▁excepted	-11764
▁exploits	-11765
▁extended	-11766
▁extraord	-11767
▁eyesight	-11768
▁flatters	-11769
▁gargrave	-11770
▁grandpré	-11771
▁halberds	-11772
▁handmaid	-11773
▁hardness	-11774
▁heaviest	-11775
▁homeward	-11776
▁hoodwink	-11777
▁hyperion	-11778
▁immodest	-11779
▁incision	-11780
▁informed	-11781
▁inviting	-11782
▁kneeling	-11783
▁leathern	-11784
▁lifeless	-11785
▁lightens	-11786
▁miracles	-11787
▁monarchs	-11788
▁monarchy	-11789
▁neighing	-11790
▁obtained	-11791
▁palpable	-11792
▁parallel	-11793
▁peasants	-11794
▁perfumed	-11795
▁philemon	-11796
▁plantain	-11797
▁populous	-11798
▁prettily	-11799
▁primrose	-11800
▁properly	-11801
▁purblind	-11802
▁pursuing	-11803
▁quaintly	-11804
▁quillets	-11805
▁regarded	-11806
▁requital	-11807
▁restless	-11808
▁revenues	-11809
▁reynaldo	-11810
▁rosemary	-11811
▁sanctity	-11812
▁scorning	-11813
▁shackles	-11814
▁sicilian	-11815
▁sluttish	-11816
▁sociable	-11817
▁sounding	-11818
▁spotless	-11819
▁supplied	-11820
▁surfeits	-11821
▁surveyor	-11822
▁tempests	-11823
▁tenderly	-11824
▁thievish	-11825
▁timandra	-11826
▁triumvir	-11827
▁trophies	-11828
▁unkindly	-11829
▁vanities	-11830
▁verified	-11831
▁wardrobe	-11832
▁welshman	-11833
coriolanus	-11834
▁afflicted	-11835
▁agincourt	-11836
▁alisander	-11837
▁appearing	-11838
▁arrogance	-11839
▁bewitched	-11840
▁brentford	-11841
▁cardinals	-11842
▁carpenter	-11843
▁carriages	-11844
▁celebrate	-11845
▁childhood	-11846
▁churchman	-11847
▁comforted	-11848
▁conceived	-11849
▁contrived	-11850
▁courtesan	-11851
▁declining	-11852
▁delighted	-11853
▁destinies	-11854
▁devouring	-11855
▁discovers	-11856
▁embassage	-11857
▁exchequer	-11858
▁fantastic	-11859
▁firmament	-11860
▁forbidden	-11861
▁forestall	-11862
▁frustrate	-11863
▁grievance	-11864
▁incapable	-11865
▁inclining	-11866
▁insinuate	-11867
▁instances	-11868
▁intercess	-11869
▁liberties	-11870
▁malignant	-11871
▁melodious	-11872
▁mightiest	-11873
▁monastery	-11874
▁montagues	-11875
▁murdering	-11876
▁myrmidons	-11877
▁operation	-11878
▁penitence	-11879
▁persuades	-11880
▁petitions	-11881
▁precisely	-11882
▁predecess	-11883
▁probation	-11884
▁prophetic	-11885
▁prostrate	-11886
▁provender	-11887
▁quietness	-11888
▁receiving	-11889
▁remaining	-11890
▁righteous	-11891
▁salvation	-11892
▁sauciness	-11893
▁sentenced	-11894
▁sentinels	-11895
▁sincerity	-11896
▁southwell	-11897
▁strengths	-11898
▁stretched	-11899
▁unadvised	-11900
▁unfeigned	-11901
▁unstained	-11902
▁uttermost	-11903
▁victories	-11904
▁affrighted	-11905
▁andromache	-11906
▁arithmetic	-11907
▁behaviours	-11908
▁birthright	-11909
▁challenger	-11910
▁chronicles	-11911
▁combatants	-11912
▁conquering	-11913
▁constraint	-11914
▁containing	-11915
▁controlled	-11916
▁deliberate	-11917
▁deservings	-11918
▁detestable	-11919
▁directions	-11920
▁distinctly	-11921
▁downstairs	-11922
▁earthquake	-11923
▁enchanting	-11924
▁englishmen	-11925
▁exceptions	-11926
▁favourites	-11927
▁graciously	-11928
▁grievously	-11929
▁humbleness	-11930
▁immaculate	-11931
▁imprisoned	-11932
▁infectious	-11933
▁infinitely	-11934
▁maintained	-11935
▁misprision	-11936
▁montgomery	-11937
▁neapolitan	-11938
▁outrageous	-11939
▁pennyworth	-11940
▁pursuivant	-11941
▁reflection	-11942
▁respecting	-11943
▁sacrifices	-11944
▁sempronius	-11945
▁sulphurous	-11946
▁threescore	-11947
▁travelling	-11948
▁ungrateful	-11949
▁willoughby	-11950
▁worshipful	-11951
▁benediction	-11952
▁celebration	-11953
▁ceremonious	-11954
▁complaining	-11955
▁conclusions	-11956
▁consciences	-11957
▁constrained	-11958
▁counsellors	-11959
▁enforcement	-11960
▁excellently	-11961
▁forbearance	-11962
▁importunate	-11963
▁infirmities	-11964
▁interpreter	-11965
▁magistrates	-11966
▁magnanimous	-11967
▁maidenheads	-11968
▁northampton	-11969
▁ostentation	-11970
▁philostrate	-11971
▁prerogative	-11972
▁presumption	-11973
▁southampton	-11974
▁threatening	-11975
▁unsatisfied	-11976
▁whoremaster	-11977
▁accomplished	-11978
▁conspirators	-11979
▁henceforward	-11980
▁neighbouring	-11981
▁preservation	-11982
▁protestation	-11983
▁dishonourable	-11984
▁forgetfulness	-11985
▁transformation	-11986
▁enfranchisement	-11987
..	-11988
ai	-11989
sk	-11990
xy	-11991
ès	-11992
”:	-11993
▁'	-11994
▁-	-11995
.’—	-11996
bat	-11997
bee	-11998
cad	-11999
car	-12000
cel	-12001
cry	-12002
don	-12003
eer	-12004
eld	-12005
eph	-12006
esp	-12007
eta	-12008
fed	-12009
ggy	-12010
ien	-12011
irr	-12012
lab	-12013
las	-12014
lic	-12015
lla	-12016
new	-12017
nia	-12018
nut	-12019
pal	-12020
pra	-12021
qui	-12022
ral	-12023
rep	-12024
rom	-12025
rop	-12026
sen	-12027
sub	-12028
sum	-12029
sur	-12030
tom	-12031
two	-12032
œur	-12033
▁14	-12034
▁15	-12035
▁ix	-12036
▁ov	-12037
appe	-12038
asps	-12039
aved	-12040
aver	-12041
ball	-12042
bard	-12043
bred	-12044
brew	-12045
bric	-12046
cere	-12047
ciss	-12048
deep	-12049
dles	-12050
door	-12051
eary	-12052
eith	-12053
erce	-12054
eshu	-12055
ests	-12056
even	-12057
fter	-12058
gger	-12059
hang	-12060
hath	-12061
holy	-12062
ibes	-12063
iger	-12064
igts	-12065
ikin	-12066
ilts	-12067
inge	-12068
itar	-12069
john	-12070
lady	-12071
lead	-12072
leon	-12073
ller	-12074
mell	-12075
mine	-12076
miss	-12077
nets	-12078
neur	-12079
neys	-12080
onel	-12081
onet	-12082
ongy	-12083
oons	-12084
orts	-12085
orum	-12086
otus	-12087
ousy	-12088
peer	-12089
pier	-12090
pill	-12091
play	-12092
ples	-12093
plus	-12094
pull	-12095
resp	-12096
reth	-12097
risy	-12098
roof	-12099
sets	-12100
sity	-12101
sore	-12102
stra	-12103
take	-12104
thee	-12105
thir	-12106
tide	-12107
umps	-12108
unto	-12109
user	-12110
vill	-12111
vour	-12112
year	-12113
▁100	-12114
▁bil	-12115
▁bom	-12116
▁bug	-12117
▁bum	-12118
▁diz	-12119
▁dug	-12120
▁hug	-12121
▁ili	-12122
▁ine	-12123
▁ish	-12124
▁meg	-12125
▁nic	-12126
▁omn	-12127
▁pam	-12128
▁pan	-12129
▁pha	-12130
▁phr	-12131
▁pon	-12132
▁pop	-12133
▁roe	-12134
▁sce	-12135
▁sev	-12136
▁sib	-12137
▁tet	-12138
▁tip	-12139
▁urn	-12140
▁viz	-12141
▁yew	-12142
adeth	-12143
ailed	-12144
aketh	-12145
ample	-12146
areth	-12147
armed	-12148
ativo	-12149
ature	-12150
brand	-12151
breed	-12152
cedon	-12153
cians	-12154
court	-12155
dance	-12156
dings	-12157
embra	-12158
emost	-12159
encer	-12160
eries	-12161
esper	-12162
fires	-12163
ggage	-12164
ghost	-12165
greed	-12166
guard	-12167
heath	-12168
hered	-12169
holes	-12170
iards	-12171
ifled	-12172
igold	-12173
iless	-12174
inant	-12175
isted	-12176
larum	-12177
longs	-12178
lying	-12179
marry	-12180
ories	-12181
oring	-12182
ority	-12183
pated	-12184
peace	-12185
pluck	-12186
proof	-12187
pture	-12188
rings	-12189
sleep	-12190
solus	-12191
still	-12192
swell	-12193
three	-12194
ubbed	-12195
ucing	-12196
uding	-12197
unner	-12198
untle	-12199
urney	-12200
utish	-12201
vener	-12202
watch	-12203
whose	-12204
zzled	-12205
▁adri	-12206
▁airs	-12207
▁alab	-12208
▁astr	-12209
▁baff	-12210
▁bane	-12211
▁batt	-12212
▁bout	-12213
▁brav	-12214
▁cain	-12215
▁cake	-12216
▁carb	-12217
▁cats	-12218
▁cert	-12219
▁clog	-12220
▁cony	-12221
▁cœur	-12222
▁dank	-12223
▁daws	-12224
▁dews	-12225
▁enam	-12226
▁enow	-12227
▁ensc	-12228
▁ensn	-12229
▁epic	-12230
▁ewer	-12231
▁fals	-12232
▁flea	-12233
▁fopp	-12234
▁gash	-12235
▁glit	-12236
▁grac	-12237
▁gris	-12238
▁haps	-12239
▁hats	-12240
▁ides	-12241
▁inqu	-12242
▁irks	-12243
▁jamy	-12244
▁lash	-12245
▁leer	-12246
▁leop	-12247
▁lids	-12248
▁lisp	-12249
▁loam	-12250
▁lone	-12251
▁lour	-12252
▁lout	-12253
▁mach	-12254
▁malt	-12255
▁mish	-12256
▁mote	-12257
▁mots	-12258
▁muzz	-12259
▁neut	-12260
▁nile	-12261
▁palf	-12262
▁peac	-12263
▁ramb	-12264
▁rams	-12265
▁raze	-12266
▁rung	-12267
▁runn	-12268
▁sear	-12269
▁sobs	-12270
▁stou	-12271
▁sups	-12272
▁taff	-12273
▁team	-12274
▁tore	-12275
▁tour	-12276
▁unex	-12277
▁ungu	-12278
▁unle	-12279
▁urch	-12280
▁wass	-12281
▁whel	-12282
▁wilf	-12283
▁woul	-12284
aunted	-12285
avenny	-12286
avoury	-12287
boding	-12288
bonado	-12289
brutus	-12290
cissus	-12291
codile	-12292
culiar	-12293
earing	-12294
entice	-12295
erflow	-12296
etical	-12297
fallen	-12298
favour	-12299
forter	-12300
ground	-12301
honour	-12302
ieving	-12303
illery	-12304
inable	-12305
itaine	-12306
ksbury	-12307
madame	-12308
nights	-12309
nowing	-12310
ontide	-12311
oubled	-12312
ounted	-12313
pareil	-12314
pieces	-12315
ration	-12316
scapes	-12317
snatch	-12318
stancy	-12319
string	-12320
temper	-12321
thanks	-12322
therea	-12323
umbers	-12324
utions	-12325
weller	-12326
▁aberg	-12327
▁abram	-12328
▁admon	-12329
▁afric	-12330
▁agate	-12331
▁appli	-12332
▁argue	-12333
▁bathe	-12334
▁bends	-12335
▁bleak	-12336
▁bloom	-12337
▁bodes	-12338
▁boist	-12339
▁bolts	-12340
▁bourn	-12341
▁bribe	-12342
▁cavil	-12343
▁chafe	-12344
▁chaps	-12345
▁chill	-12346
▁chink	-12347
▁choir	-12348
▁claps	-12349
▁clasp	-12350
▁clink	-12351
▁clust	-12352
▁compt	-12353
▁cools	-12354
▁counc	-12355
▁creon	-12356
▁crowd	-12357
▁deign	-12358
▁depra	-12359
▁derog	-12360
▁dimin	-12361
▁disli	-12362
▁drave	-12363
▁dregs	-12364
▁drone	-12365
▁dross	-12366
▁egreg	-12367
▁enrag	-12368
▁enthr	-12369
▁entit	-12370
▁erect	-12371
▁exhal	-12372
▁expel	-12373
▁exter	-12374
▁fable	-12375
▁fairs	-12376
▁fated	-12377
▁fines	-12378
▁fitly	-12379
▁flats	-12380
▁flatt	-12381
▁flung	-12382
▁forge	-12383
▁freck	-12384
▁freer	-12385
▁galen	-12386
▁genoa	-12387
▁glean	-12388
▁gowns	-12389
▁graft	-12390
▁grate	-12391
▁greed	-12392
▁guile	-12393
▁habil	-12394
▁hawks	-12395
▁hilts	-12396
▁hired	-12397
▁hovel	-12398
▁hydra	-12399
▁impro	-12400
▁kerns	-12401
▁laced	-12402
▁leans	-12403
▁leeks	-12404
▁lifts	-12405
▁lousy	-12406
▁meals	-12407
▁misen	-12408
▁mispl	-12409
▁misty	-12410
▁moods	-12411
▁obstr	-12412
▁older	-12413
▁olive	-12414
▁onset	-12415
▁ounce	-12416
▁owest	-12417
▁paras	-12418
▁perch	-12419
▁plaus	-12420
▁porch	-12421
▁prone	-12422
▁ptole	-12423
▁pulls	-12424
▁quote	-12425
▁rates	-12426
▁razed	-12427
▁reeds	-12428
▁rents	-12429
▁ripen	-12430
▁rocky	-12431
▁scyth	-12432
▁shady	-12433
▁shear	-12434
▁shone	-12435
▁shove	-12436
▁shuns	-12437
▁sinks	-12438
▁sleek	-12439
▁slide	-12440
▁solid	-12441
▁spoon	-12442
▁spout	-12443
▁sucks	-12444
▁swart	-12445
▁tenor	-12446
▁tinct	-12447
▁tombs	-12448
▁trent	-12449
▁tripp	-12450
▁trull	-12451
▁tyrus	-12452
▁unbru	-12453
▁unbur	-12454
▁uncur	-12455
▁unpar	-12456
▁unpol	-12457
▁untie	-12458
▁untut	-12459
▁using	-12460
▁vagab	-12461
▁vicar	-12462
▁vomit	-12463
▁waken	-12464
▁wield	-12465
▁wrung	-12466
▁yards	-12467
actions	-12468
alarums	-12469
bellied	-12470
cessant	-12471
cornets	-12472
courage	-12473
erwhelm	-12474
hanging	-12475
incible	-12476
iration	-12477
joining	-12478
killing	-12479
kindled	-12480
manship	-12481
missive	-12482
painted	-12483
palamon	-12484
pective	-12485
portion	-12486
prithee	-12487
putting	-12488
stained	-12489
strings	-12490
thought	-12491
warwick	-12492
▁actium	-12493
▁adders	-12494
▁adored	-12495
▁advanc	-12496
▁affirm	-12497
▁agents	-12498
▁albion	-12499
▁allies	-12500
▁allure	-12501
▁apople	-12502
▁approv	-12503
▁arbitr	-12504
▁argosy	-12505
▁aweary	-12506
▁basset	-12507
▁bavian	-12508
▁beacon	-12509
▁beetle	-12510
▁bolder	-12511
▁brawls	-12512
▁brooch	-12513
▁bubble	-12514
▁bullet	-12515
▁bushes	-12516
▁busied	-12517
▁button	-12518
▁calumn	-12519
▁canary	-12520
▁captiv	-12521
▁career	-12522
▁cattle	-12523
▁cheval	-12524
▁chrish	-12525
▁cinque	-12526
▁clerks	-12527
▁clocks	-12528
▁cloven	-12529
▁clutch	-12530
▁confus	-12531
▁contam	-12532
▁cracks	-12533
▁craved	-12534
▁craven	-12535
▁curate	-12536
▁deface	-12537
▁dennis	-12538
▁denote	-12539
▁descry	-12540
▁dieted	-12541
▁disfig	-12542
▁disord	-12543
▁distil	-12544
▁dogged	-12545
▁doigts	-12546
▁domine	-12547
▁dulcet	-12548
▁engage	-12549
▁erring	-12550
▁expose	-12551
▁feeder	-12552
▁flatly	-12553
▁foison	-12554
▁forres	-12555
▁fouler	-12556
▁fruits	-12557
▁furies	-12558
▁gallop	-12559
▁gallus	-12560
▁genius	-12561
▁gotten	-12562
▁groats	-12563
▁groves	-12564
▁guided	-12565
▁gurney	-12566
▁halter	-12567
▁haunts	-12568
▁heaped	-12569
▁hearse	-12570
▁hedges	-12571
▁helped	-12572
▁hereof	-12573
▁hogshe	-12574
▁incomp	-12575
▁indict	-12576
▁indies	-12577
▁infuse	-12578
▁inland	-12579
▁interl	-12580
▁interr	-12581
▁junius	-12582
▁kinder	-12583
▁larger	-12584
▁lavish	-12585
▁learnt	-12586
▁lessen	-12587
▁lionel	-12588
▁loathe	-12589
▁lodges	-12590
▁longed	-12591
▁madcap	-12592
▁mainly	-12593
▁manned	-12594
▁matron	-12595
▁measur	-12596
▁medlar	-12597
▁missed	-12598
▁moneys	-12599
▁morris	-12600
▁musing	-12601
▁namely	-12602
▁naming	-12603
▁nearly	-12604
▁neighs	-12605
▁nursed	-12606
▁odours	-12607
▁origin	-12608
▁parrot	-12609
▁pencil	-12610
▁penned	-12611
▁perfid	-12612
▁pillar	-12613
▁plumes	-12614
▁potion	-12615
▁premed	-12616
▁pridge	-12617
▁prizes	-12618
▁profan	-12619
▁prosec	-12620
▁prunes	-12621
▁pulpit	-12622
▁putter	-12623
▁quoted	-12624
▁rarity	-12625
▁raught	-12626
▁recall	-12627
▁repaid	-12628
▁repast	-12629
▁revoke	-12630
▁rhodes	-12631
▁rounds	-12632
▁rubies	-12633
▁ruffle	-12634
▁rugged	-12635
▁scorch	-12636
▁severn	-12637
▁sextus	-12638
▁sicily	-12639
▁sighed	-12640
▁silius	-12641
▁singer	-12642
▁singly	-12643
▁skirts	-12644
▁skulls	-12645
▁slough	-12646
▁snares	-12647
▁snores	-12648
▁soever	-12649
▁specul	-12650
▁spends	-12651
▁spongy	-12652
▁spouse	-12653
▁stains	-12654
▁stoops	-12655
▁surges	-12656
▁tackle	-12657
▁taints	-12658
▁target	-12659
▁tastes	-12660
▁tatter	-12661
▁taunts	-12662
▁tenant	-12663
▁tereus	-12664
▁thetis	-12665
▁thighs	-12666
▁threep	-12667
▁trains	-12668
▁unlock	-12669
▁unmeet	-12670
▁unseal	-12671
▁unwill	-12672
▁uproar	-12673
▁vaward	-12674
▁vestal	-12675
▁viewed	-12676
▁villan	-12677
▁vulcan	-12678
▁waning	-12679
▁warder	-12680
▁warmth	-12681
▁whenas	-12682
▁worlds	-12683
▁wrings	-12684
▁yearly	-12685
ications	-12686
ribution	-12687
striking	-12688
▁admiral	-12689
▁affable	-12690
▁amazons	-12691
▁anatomy	-12692
▁animals	-12693
▁apology	-12694
▁armours	-12695
▁attired	-12696
▁attract	-12697
▁ballads	-12698
▁bearest	-12699
▁beckons	-12700
▁beseems	-12701
▁billows	-12702
▁boiling	-12703
▁braving	-12704
▁brutish	-12705
▁burneth	-12706
▁buzzing	-12707
▁cashier	-12708
▁centaur	-12709
▁chanced	-12710
▁checked	-12711
▁chooses	-12712
▁circled	-12713
▁clapper	-12714
▁clearer	-12715
▁clearly	-12716
▁clement	-12717
▁combine	-12718
▁commits	-12719
▁conjoin	-12720
▁consult	-12721
▁contrar	-12722
▁contriv	-12723
▁cooling	-12724
▁cowslip	-12725
▁craving	-12726
▁cursing	-12727
▁customs	-12728
▁cypress	-12729
▁decayed	-12730
▁deepest	-12731
▁devices	-12732
▁discuss	-12733
▁disguis	-12734
▁doctors	-12735
▁dreaded	-12736
▁driving	-12737
▁durance	-12738
▁earldom	-12739
▁elected	-12740
▁eminent	-12741
▁emulous	-12742
▁envenom	-12743
▁escapes	-12744
▁esteems	-12745
▁extinct	-12746
▁forbade	-12747
▁forever	-12748
▁fretted	-12749
▁fulfill	-12750
▁galleys	-12751
▁gardens	-12752
▁gauntle	-12753
▁glister	-12754
▁glowing	-12755
▁goblins	-12756
▁grafted	-12757
▁grosser	-12758
▁herring	-12759
▁hostile	-12760
▁hurried	-12761
▁infects	-12762
▁inflame	-12763
▁ingrate	-12764
▁invites	-12765
▁jesting	-12766
▁jointly	-12767
▁langley	-12768
▁leaning	-12769
▁lighter	-12770
▁loathes	-12771
▁longest	-12772
▁luggage	-12773
▁macedon	-12774
▁maidens	-12775
▁malcont	-12776
▁marched	-12777
▁marking	-12778
▁matched	-12779
▁minions	-12780
▁mislike	-12781
▁missing	-12782
▁mongrel	-12783
▁motives	-12784
▁mourner	-12785
▁muffler	-12786
▁musters	-12787
▁napkins	-12788
▁nursing	-12789
▁obscene	-12790
▁oratory	-12791
▁orisons	-12792
▁outface	-12793
▁outstri	-12794
▁palates	-12795
▁panting	-12796
▁patches	-12797
▁peering	-12798
▁pension	-12799
▁peopled	-12800
▁perpend	-12801
▁perused	-12802
▁phrases	-12803
▁phrynia	-12804
▁picking	-12805
▁pillars	-12806
▁pinches	-12807
▁pitched	-12808
▁pitying	-12809
▁pockets	-12810
▁postern	-12811
▁posture	-12812
▁potions	-12813
▁preferr	-12814
▁pricket	-12815
▁prisons	-12816
▁pudding	-12817
▁quintus	-12818
▁quondam	-12819
▁raising	-12820
▁ransack	-12821
▁records	-12822
▁reeking	-12823
▁refrain	-12824
▁rehears	-12825
▁repulse	-12826
▁respite	-12827
▁ribbons	-12828
▁roasted	-12829
▁rolling	-12830
▁savours	-12831
▁sayings	-12832
▁schools	-12833
▁seduced	-12834
▁sensual	-12835
▁session	-12836
▁shipwre	-12837
▁shorten	-12838
▁shrieks	-12839
▁similes	-12840
▁simpcox	-12841
▁simples	-12842
▁sourest	-12843
▁spoiled	-12844
▁stagger	-12845
▁statute	-12846
▁subdues	-12847
▁substit	-12848
▁sulphur	-12849
▁tenants	-12850
▁thrives	-12851
▁thrusts	-12852
▁twofold	-12853
▁uncover	-12854
▁undoing	-12855
▁unequal	-12856
▁unlucky	-12857
▁unthank	-12858
▁unusual	-12859
▁varnish	-12860
▁varying	-12861
▁viewing	-12862
▁voluble	-12863
▁wagging	-12864
▁washing	-12865
▁watches	-12866
▁wearied	-12867
▁whatsoe	-12868
▁wheaten	-12869
▁witless	-12870
▁wrangle	-12871
▁wrapped	-12872
▁wrinkle	-12873
scription	-12874
slaughter	-12875
videlicet	-12876
▁abundant	-12877
▁accusers	-12878
▁amazedly	-12879
▁ancestor	-12880
▁apparell	-12881
▁approves	-12882
▁armourer	-12883
▁assailed	-12884
▁astonish	-12885
▁attribut	-12886
▁augustus	-12887
▁beautify	-12888
▁beheaded	-12889
▁blackamo	-12890
▁boasting	-12891
▁bonfires	-12892
▁bounties	-12893
▁bracelet	-12894
▁brawling	-12895
▁bucklers	-12896
▁charming	-12897
▁churches	-12898
▁codpiece	-12899
▁commonly	-12900
▁conceits	-12901
▁consents	-12902
▁convince	-12903
▁counties	-12904
▁cracking	-12905
▁crispian	-12906
▁crossing	-12907
▁cushions	-12908
▁cytherea	-12909
▁descends	-12910
▁descried	-12911
▁despatch	-12912
▁diamonds	-12913
▁diligent	-12914
▁diminish	-12915
▁disaster	-12916
▁discharg	-12917
▁disdains	-12918
▁distaste	-12919
▁dutchman	-12920
▁dwarfish	-12921
▁eclipses	-12922
▁eighteen	-12923
▁elephant	-12924
▁estimate	-12925
▁feigning	-12926
▁festival	-12927
▁fleeting	-12928
▁foremost	-12929
▁foresaid	-12930
▁fragrant	-12931
▁grecians	-12932
▁greekish	-12933
▁grounded	-12934
▁happiest	-12935
▁headlong	-12936
▁helicane	-12937
▁heraldry	-12938
▁honester	-12939
▁huntsmen	-12940
▁idolatry	-12941
▁imagined	-12942
▁infringe	-12943
▁jeweller	-12944
▁juggling	-12945
▁lethargy	-12946
▁marigold	-12947
▁martyred	-12948
▁massacre	-12949
▁material	-12950
▁menteith	-12951
▁modestly	-12952
▁moralize	-12953
▁mutinies	-12954
▁mutually	-12955
▁noontide	-12956
▁outrages	-12957
▁overflow	-12958
▁overture	-12959
▁pageants	-12960
▁paramour	-12961
▁parthian	-12962
▁partners	-12963
▁peculiar	-12964
▁pertains	-12965
▁perverse	-12966
▁phrygian	-12967
▁plucking	-12968
▁position	-12969
▁positive	-12970
▁pricking	-12971
▁privileg	-12972
▁prospect	-12973
▁rambures	-12974
▁reckless	-12975
▁relieved	-12976
▁rendered	-12977
▁renounce	-12978
▁repealed	-12979
▁resisted	-12980
▁schedule	-12981
▁scholars	-12982
▁sentinel	-12983
▁severity	-12984
▁shilling	-12985
▁shipping	-12986
▁shouting	-12987
▁skipping	-12988
▁slumbers	-12989
▁smelling	-12990
▁smoothed	-12991
▁snatches	-12992
▁sportive	-12993
▁starting	-12994
▁strangle	-12995
▁swiftest	-12996
▁taxation	-12997
▁teachest	-12998
▁tempting	-12999
▁thracian	-13000
▁tortures	-13001
▁toucheth	-13002
▁treasury	-13003
▁trusting	-13004
▁untaught	-13005
▁valorous	-13006
▁vantages	-13007
▁vehement	-13008
▁venomous	-13009
▁ventures	-13010
▁vineyard	-13011
▁visiting	-13012
▁watchman	-13013
▁watchmen	-13014
▁weighing	-13015
▁welshmen	-13016
▁westward	-13017
▁whitmore	-13018
▁wilfully	-13019
▁wormwood	-13020
▁wringing	-13021
▁accounted	-13022
▁advisedly	-13023
▁affrights	-13024
▁aguecheek	-13025
▁alabaster	-13026
▁appellant	-13027
▁aquitaine	-13028
▁arbitrate	-13029
▁artillery	-13030
▁attentive	-13031
▁attribute	-13032
▁balthazar	-13033
▁believing	-13034
▁beseeming	-13035
▁bestowing	-13036
▁bethought	-13037
▁blindness	-13038
▁buildings	-13039
▁cancelled	-13040
▁carbonado	-13041
▁caterpill	-13042
▁cherished	-13043
▁churchmen	-13044
▁comforter	-13045
▁compounds	-13046
▁consented	-13047
▁converted	-13048
▁crocodile	-13049
▁customary	-13050
▁dardanius	-13051
▁depending	-13052
▁dexterity	-13053
▁differing	-13054
▁discarded	-13055
▁disclosed	-13056
▁discredit	-13057
▁disgraces	-13058
▁disparage	-13059
▁displayed	-13060
▁disposing	-13061
▁dissolute	-13062
▁drunkards	-13063
▁embracing	-13064
▁enchanted	-13065
▁encourage	-13066
▁engenders	-13067
▁engrossed	-13068
▁enthroned	-13069
▁establish	-13070
▁excrement	-13071
▁exercises	-13072
▁extenuate	-13073
▁forfeited	-13074
▁fortified	-13075
▁fortitude	-13076
▁fountains	-13077
▁fruitless	-13078
▁fulfilled	-13079
▁graceless	-13080
▁grossness	-13081
▁halfpenny	-13082
▁hypocrisy	-13083
▁imitation	-13084
▁impartial	-13085
▁incessant	-13086
▁inheritor	-13087
▁instructs	-13088
▁interview	-13089
▁inventory	-13090
▁judgments	-13091
▁judicious	-13092
▁lowliness	-13093
▁luxurious	-13094
▁majesties	-13095
▁misshapen	-13096
▁mortified	-13097
▁narcissus	-13098
▁negligent	-13099
▁nonpareil	-13100
▁obstinate	-13101
▁officious	-13102
▁outwardly	-13103
▁preferred	-13104
▁privately	-13105
▁prodigies	-13106
▁promising	-13107
▁propagate	-13108
▁provinces	-13109
▁quittance	-13110
▁rancorous	-13111
▁reference	-13112
▁rejoicing	-13113
▁remission	-13114
▁requiring	-13115
▁returning	-13116
▁royalties	-13117
▁safeguard	-13118
▁sentences	-13119
▁seriously	-13120
▁shapeless	-13121
▁shrieking	-13122
▁sightless	-13123
▁sorrowful	-13124
▁strangest	-13125
▁suggested	-13126
▁sumptuous	-13127
▁suppliant	-13128
▁surrender	-13129
▁tewksbury	-13130
▁thrusting	-13131
▁tractable	-13132
▁twinkling	-13133
▁unhappily	-13134
▁unluckily	-13135
▁unsavoury	-13136
▁unskilful	-13137
▁valiantly	-13138
▁whiteness	-13139
▁woodville	-13140
▁wrangling	-13141
▁yorkshire	-13142
▁advertised	-13143
▁apartments	-13144
▁bareheaded	-13145
▁carelessly	-13146
▁confiscate	-13147
▁contraries	-13148
▁discourses	-13149
▁dispossess	-13150
▁encounters	-13151
▁endowments	-13152
▁exhibition	-13153
▁exposition	-13154
▁favourable	-13155
▁foundation	-13156
▁glittering	-13157
▁grievances	-13158
▁habitation	-13159
▁hitherward	-13160
▁importance	-13161
▁imputation	-13162
▁infallible	-13163
▁instructed	-13164
▁invincible	-13165
▁lengthened	-13166
▁mightiness	-13167
▁mistresses	-13168
▁obligation	-13169
▁prevention	-13170
▁prodigious	-13171
▁properties	-13172
▁prophesied	-13173
▁providence	-13174
▁questioned	-13175
▁reckonings	-13176
▁reconciled	-13177
▁resistance	-13178
▁restrained	-13179
▁separation	-13180
▁shamefully	-13181
▁simpleness	-13182
▁sisterhood	-13183
▁slanderous	-13184
▁smithfield	-13185
▁stratagems	-13186
▁successful	-13187
▁successive	-13188
▁swaggerers	-13189
▁thoroughly	-13190
▁threepence	-13191
▁translated	-13192
▁unpleasing	-13193
▁virtuously	-13194
▁whispering	-13195
▁abergavenny	-13196
▁afflictions	-13197
▁competitors	-13198
▁confederacy	-13199
▁conjuration	-13200
▁controlling	-13201
▁convenience	-13202
▁demonstrate	-13203
▁disciplines	-13204
▁disobedient	-13205
▁dissentious	-13206
▁encompassed	-13207
▁enlargement	-13208
▁established	-13209
▁exceedingly	-13210
▁exclamation	-13211
▁forwardness	-13212
▁inconstancy	-13213
▁mustardseed	-13214
▁overweening	-13215
▁possessions	-13216
▁proportions	-13217
▁reformation	-13218
▁thunderbolt	-13219
▁transparent	-13220
▁understands	-13221
▁unspeakable	-13222
▁unwillingly	-13223
▁conveniently	-13224
▁counterfeits	-13225
▁counterpoise	-13226
▁dispositions	-13227
▁executioners	-13228
▁falconbridge	-13229
▁imaginations	-13230
▁imperfection	-13231
▁intercession	-13232
▁presumptuous	-13233
▁remembrances	-13234
▁thankfulness	-13235
▁unprofitable	-13236
▁counterfeited	-13237
▁extraordinary	-13238
▁neighbourhood	-13239
▁superstitious	-13240
**	-13241
,_	-13242
--	-13243
.)	-13244
_;	-13245
bu	-13246
ea	-13247
ga	-13248
gm	-13249
lu	-13250
ok	-13251
si	-13252
êt	-13253
’:	-13254
▁æ	-13255
▁é	-13256
▁—	-13257
,—_	-13258
acr	-13259
agn	-13260
avo	-13261
axe	-13262
ban	-13263
bia	-13264
bud	-13265
bur	-13266
bya	-13267
cam	-13268
cot	-13269
dea	-13270
div	-13271
edg	-13272
eep	-13273
fet	-13274
fix	-13275
gne	-13276
hom	-13277
jor	-13278
lap	-13279
lez	-13280
lim	-13281
luc	-13282
moi	-13283
nor	-13284
ole	-13285
olt	-13286
orc	-13287
pan	-13288
psy	-13289
pur	-13290
rob	-13291
sad	-13292
sch	-13293
sez	-13294
shr	-13295
spo	-13296
tly	-13297
top	-13298
tro	-13299
fal	-13300
ulk	-13301
unn	-13302
urd	-13303
vow	-13304
whe	-13305
xes	-13306
ëth	-13307
▁ou	-13308
▁ul	-13309
▁xv	-13310
abae	-13311
acqu	-13312
agor	-13313
amor	-13314
angu	-13315
ansd	-13316
anta	-13317
ardo	-13318
bate	-13319
bels	-13320
bout	-13321
cadé	-13322
caps	-13323
chus	-13324
city	-13325
claw	-13326
coal	-13327
comp	-13328
conf	-13329
cons	-13330
cous	-13331
ctar	-13332
dest	-13333
died	-13334
dies	-13335
drew	-13336
ercy	-13337
erfl	-13338
from	-13339
gate	-13340
gery	-13341
goes	-13342
grav	-13343
hear	-13344
help	-13345
hill	-13346
hunt	-13347
iago	-13348
ibal	-13349
icip	-13350
iero	-13351
ieth	-13352
iffs	-13353
ilty	-13354
impr	-13355
iner	-13356
inst	-13357
ique	-13358
isen	-13359
itti	-13360
kill	-13361
lack	-13362
lais	-13363
lant	-13364
ledg	-13365
luce	-13366
many	-13367
mock	-13368
mort	-13369
msey	-13370
odes	-13371
olis	-13372
ooty	-13373
otch	-13374
othy	-13375
part	-13376
pole	-13377
rain	-13378
rcan	-13379
regn	-13380
resh	-13381
rise	-13382
rors	-13383
rout	-13384
rule	-13385
sans	-13386
save	-13387
scap	-13388
serv	-13389
sive	-13390
soul	-13391
spir	-13392
stay	-13393
supp	-13394
teth	-13395
thah	-13396
thia	-13397
tons	-13398
true	-13399
uing	-13400
umel	-13401
urre	-13402
vial	-13403
weep	-13404
west	-13405
weth	-13406
worm	-13407
▁***	-13408
▁aer	-13409
▁arc	-13410
▁asc	-13411
▁aur	-13412
▁ave	-13413
▁buz	-13414
▁cub	-13415
▁cyn	-13416
▁ell	-13417
▁ewe	-13418
▁gin	-13419
▁gum	-13420
▁jay	-13421
▁jut	-13422
▁lop	-13423
▁mit	-13424
▁nev	-13425
▁nib	-13426
▁peg	-13427
▁pew	-13428
▁quo	-13429
▁rab	-13430
▁sag	-13431
▁tir	-13432
▁tug	-13433
▁tus	-13434
▁unv	-13435
▁vil	-13436
▁wan	-13437
above	-13438
adies	-13439
agued	-13440
alion	-13441
alted	-13442
andom	-13443
aphor	-13444
apper	-13445
arbus	-13446
arily	-13447
asham	-13448
asher	-13449
asped	-13450
aways	-13451
bbles	-13452
beard	-13453
being	-13454
berus	-13455
blous	-13456
cease	-13457
child	-13458
crown	-13459
deser	-13460
eaten	-13461
eding	-13462
entic	-13463
erdon	-13464
ernal	-13465
esius	-13466
exper	-13467
first	-13468
forms	-13469
found	-13470
haste	-13471
ictus	-13472
inted	-13473
inter	-13474
izing	-13475
joram	-13476
lives	-13477
llity	-13478
march	-13479
medon	-13480
mount	-13481
ndour	-13482
nobly	-13483
north	-13484
ogues	-13485
olved	-13486
osity	-13487
ostor	-13488
ouple	-13489
owder	-13490
owick	-13491
pared	-13492
pauca	-13493
peian	-13494
proud	-13495
quent	-13496
river	-13497
rophe	-13498
rosal	-13499
royal	-13500
shell	-13501
start	-13502
storm	-13503
tears	-13504
terre	-13505
times	-13506
tuned	-13507
uckle	-13508
udged	-13509
uting	-13510
vouch	-13511
worms	-13512
yards	-13513
ëthon	-13514
▁ador	-13515
▁aery	-13516
▁agre	-13517
▁aims	-13518
▁alch	-13519
▁alle	-13520
▁ashy	-13521
▁asia	-13522
▁asks	-13523
▁assa	-13524
▁barg	-13525
▁blew	-13526
▁blur	-13527
▁boun	-13528
▁canv	-13529
▁cape	-13530
▁chas	-13531
▁chok	-13532
▁cite	-13533
▁clod	-13534
▁core	-13535
▁cret	-13536
▁desk	-13537
▁digg	-13538
▁ding	-13539
▁disa	-13540
▁enfe	-13541
▁enjo	-13542
▁espy	-13543
▁fees	-13544
▁fery	-13545
▁fidd	-13546
▁figs	-13547
▁flex	-13548
▁foam	-13549
▁foem	-13550
▁fork	-13551
▁fuel	-13552
▁gaud	-13553
▁girt	-13554
▁glib	-13555
▁goal	-13556
▁goot	-13557
▁grud	-13558
▁hags	-13559
▁hann	-13560
▁harb	-13561
▁hosp	-13562
▁hous	-13563
▁humh	-13564
▁inde	-13565
▁inev	-13566
▁inex	-13567
▁inly	-13568
▁jars	-13569
▁jeph	-13570
▁lank	-13571
▁lath	-13572
▁lave	-13573
▁lied	-13574
▁loop	-13575
▁lots	-13576
▁macc	-13577
▁maud	-13578
▁mice	-13579
▁mint	-13580
▁moss	-13581
▁moun	-13582
▁nero	-13583
▁nuns	-13584
▁oats	-13585
▁oily	-13586
▁orbs	-13587
▁outd	-13588
▁owls	-13589
▁pard	-13590
▁patr	-13591
▁penn	-13592
▁peri	-13593
▁phar	-13594
▁pied	-13595
▁pike	-13596
▁pink	-13597
▁pint	-13598
▁piss	-13599
▁pome	-13600
▁pond	-13601
▁pont	-13602
▁pror	-13603
▁punk	-13604
▁pyth	-13605
▁quir	-13606
▁rake	-13607
▁rave	-13608
▁rays	-13609
▁rect	-13610
▁reel	-13611
▁rely	-13612
▁rime	-13613
▁roan	-13614
▁rood	-13615
▁rook	-13616
▁rote	-13617
▁rubb	-13618
▁sapp	-13619
▁saty	-13620
▁saws	-13621
▁scam	-13622
▁scum	-13623
▁scut	-13624
▁seam	-13625
▁sere	-13626
▁siby	-13627
▁smoo	-13628
▁subs	-13629
▁sues	-13630
▁sunk	-13631
▁ties	-13632
▁tilt	-13633
▁topp	-13634
▁trap	-13635
▁très	-13636
▁tuft	-13637
▁unlo	-13638
▁unne	-13639
▁vere	-13640
▁vint	-13641
▁voll	-13642
▁wean	-13643
▁winn	-13644
▁wist	-13645
▁witt	-13646
▁wive	-13647
▁wool	-13648
▁wrap	-13649
abaeus	-13650
abouts	-13651
aching	-13652
acrity	-13653
agoras	-13654
akings	-13655
almost	-13656
amorph	-13657
anders	-13658
arable	-13659
arelon	-13660
arison	-13661
atiate	-13662
atives	-13663
behold	-13664
blance	-13665
camore	-13666
ceives	-13667
ceness	-13668
cience	-13669
elping	-13670
encing	-13671
ending	-13672
eshold	-13673
espont	-13674
esseth	-13675
ezvous	-13676
haired	-13677
hector	-13678
imitar	-13679
ioness	-13680
isions	-13681
labour	-13682
mering	-13683
morant	-13684
moving	-13685
ousing	-13686
quered	-13687
rested	-13688
return	-13689
scaped	-13690
sennet	-13691
spoken	-13692
summer	-13693
thirty	-13694
urally	-13695
vagant	-13696
vergne	-13697
winged	-13698
▁abort	-13699
▁acorn	-13700
▁acres	-13701
▁adult	-13702
▁agues	-13703
▁alarm	-13704
▁alban	-13705
▁annex	-13706
▁apron	-13707
▁ascri	-13708
▁baits	-13709
▁besie	-13710
▁bevis	-13711
▁binds	-13712
▁blots	-13713
▁booty	-13714
▁bowls	-13715
▁brisk	-13716
▁bruit	-13717
▁bulls	-13718
▁burgh	-13719
▁cable	-13720
▁caith	-13721
▁cakes	-13722
▁camel	-13723
▁casts	-13724
▁chame	-13725
▁chant	-13726
▁chops	-13727
▁cicat	-13728
▁claws	-13729
▁clime	-13730
▁clipp	-13731
▁comet	-13732
▁curan	-13733
▁denis	-13734
▁deriv	-13735
▁devis	-13736
▁dishe	-13737
▁diver	-13738
▁divul	-13739
▁dizzy	-13740
▁downy	-13741
▁drain	-13742
▁dries	-13743
▁ducks	-13744
▁dumps	-13745
▁eater	-13746
▁embow	-13747
▁esper	-13748
▁exorc	-13749
▁extol	-13750
▁exult	-13751
▁faded	-13752
▁famed	-13753
▁fangs	-13754
▁flaws	-13755
▁flush	-13756
▁foggy	-13757
▁forek	-13758
▁forew	-13759
▁fowls	-13760
▁gault	-13761
▁gibes	-13762
▁girth	-13763
▁giver	-13764
▁glist	-13765
▁glued	-13766
▁godly	-13767
▁gored	-13768
▁guise	-13769
▁hares	-13770
▁harpy	-13771
▁helms	-13772
▁hight	-13773
▁homic	-13774
▁hoofs	-13775
▁hooks	-13776
▁hurry	-13777
▁husks	-13778
▁hymns	-13779
▁ilium	-13780
▁illum	-13781
▁impet	-13782
▁index	-13783
▁indig	-13784
▁infus	-13785
▁knits	-13786
▁knoll	-13787
▁lasts	-13788
▁leash	-13789
▁lethe	-13790
▁libya	-13791
▁liked	-13792
▁loser	-13793
▁lulla	-13794
▁lurks	-13795
▁lusts	-13796
▁major	-13797
▁maker	-13798
▁marse	-13799
▁masks	-13800
▁menec	-13801
▁milks	-13802
▁mince	-13803
▁miner	-13804
▁misbe	-13805
▁misch	-13806
▁mixed	-13807
▁musco	-13808
▁oddly	-13809
▁paler	-13810
▁pales	-13811
▁pants	-13812
▁paste	-13813
▁paths	-13814
▁paved	-13815
▁penth	-13816
▁pepin	-13817
▁perdy	-13818
▁perse	-13819
▁phant	-13820
▁pined	-13821
▁plash	-13822
▁plies	-13823
▁poesy	-13824
▁poets	-13825
▁prave	-13826
▁preys	-13827
▁prior	-13828
▁purer	-13829
▁quaff	-13830
▁quail	-13831
▁qualm	-13832
▁quips	-13833
▁rainy	-13834
▁rarer	-13835
▁recom	-13836
▁reels	-13837
▁remit	-13838
▁remov	-13839
▁repay	-13840
▁reviv	-13841
▁risen	-13842
▁rolls	-13843
▁roofs	-13844
▁scent	-13845
▁screw	-13846
▁sheds	-13847
▁shent	-13848
▁shrug	-13849
▁sieve	-13850
▁silks	-13851
▁skins	-13852
▁slime	-13853
▁slugg	-13854
▁slyly	-13855
▁smear	-13856
▁smote	-13857
▁sneak	-13858
▁sowed	-13859
▁spart	-13860
▁spits	-13861
▁squar	-13862
▁stall	-13863
▁starv	-13864
▁stink	-13865
▁stoup	-13866
▁stung	-13867
▁sully	-13868
▁tight	-13869
▁toast	-13870
▁trice	-13871
▁trimm	-13872
▁twigs	-13873
▁unavo	-13874
▁undiv	-13875
▁union	-13876
▁unsay	-13877
▁unshe	-13878
▁untru	-13879
▁upbra	-13880
▁useth	-13881
▁usury	-13882
▁vaded	-13883
▁vasty	-13884
▁vehem	-13885
▁vener	-13886
▁vials	-13887
▁vines	-13888
▁viper	-13889
▁vital	-13890
▁wards	-13891
▁waver	-13892
▁weird	-13893
▁whoso	-13894
▁winks	-13895
▁woven	-13896
ansdale	-13897
atories	-13898
birding	-13899
blooded	-13900
changed	-13901
charles	-13902
ergrown	-13903
falling	-13904
fellows	-13905
gravate	-13906
icester	-13907
instead	-13908
mongers	-13909
nerable	-13910
otchets	-13911
pointed	-13912
ressing	-13913
retched	-13914
retires	-13915
tenberg	-13916
trumpet	-13917
ustomed	-13918
valiant	-13919
venteen	-13920
verness	-13921
wearied	-13922
whelmed	-13923
▁abhorr	-13924
▁abjure	-13925
▁absurd	-13926
▁achiev	-13927
▁addict	-13928
▁afresh	-13929
▁allows	-13930
▁altars	-13931
▁alters	-13932
▁amplif	-13933
▁angers	-13934
▁annual	-13935
▁anthem	-13936
▁antick	-13937
▁aprons	-13938
▁arabia	-13939
▁argued	-13940
▁arming	-13941
▁assays	-13942
▁awakes	-13943
▁badges	-13944
▁baited	-13945
▁bandit	-13946
▁banner	-13947
▁barred	-13948
▁beldam	-13949
▁beweep	-13950
▁billow	-13951
▁blamed	-13952
▁blanks	-13953
▁blithe	-13954
▁blocks	-13955
▁bodily	-13956
▁boding	-13957
▁brakes	-13958
▁braves	-13959
▁buffet	-13960
▁cancel	-13961
▁casque	-13962
▁catast	-13963
▁certes	-13964
▁chafes	-13965
▁cister	-13966
▁cloyed	-13967
▁cobham	-13968
▁cockat	-13969
▁cockle	-13970
▁colder	-13971
▁conser	-13972
▁covers	-13973
▁cramps	-13974
▁crouch	-13975
▁curfew	-13976
▁curtal	-13977
▁deceas	-13978
▁depriv	-13979
▁desper	-13980
▁diffic	-13981
▁duller	-13982
▁earned	-13983
▁echoes	-13984
▁elbows	-13985
▁elders	-13986
▁embrac	-13987
▁empery	-13988
▁enforc	-13989
▁entrap	-13990
▁envied	-13991
▁equals	-13992
▁equity	-13993
▁espied	-13994
▁essent	-13995
▁ethiop	-13996
▁exiled	-13997
▁extent	-13998
▁factor	-13999
▁falser	-14000
▁fetter	-14001
▁filial	-14002
▁flayed	-14003
▁forage	-14004
▁forges	-14005
▁formed	-14006
▁frosts	-14007
▁fubbed	-14008
▁gained	-14009
▁gardon	-14010
▁garlic	-14011
▁gibbet	-14012
▁glassy	-14013
▁glides	-14014
▁gunner	-14015
▁haberd	-14016
▁hateth	-14017
▁heated	-14018
▁heaved	-14019
▁heresy	-14020
▁hesper	-14021
▁horner	-14022
▁housew	-14023
▁howled	-14024
▁howsoe	-14025
▁hyrcan	-14026
▁impute	-14027
▁incarn	-14028
▁indulg	-14029
▁inflam	-14030
▁infold	-14031
▁ingred	-14032
▁insupp	-14033
▁ireful	-14034
▁jovial	-14035
▁larded	-14036
▁leaven	-14037
▁levity	-14038
▁lewdly	-14039
▁licent	-14040
▁lilies	-14041
▁livest	-14042
▁logger	-14043
▁loiter	-14044
▁lopped	-14045
▁losers	-14046
▁lunacy	-14047
▁madame	-14048
▁marred	-14049
▁martyr	-14050
▁masham	-14051
▁mercen	-14052
▁meteor	-14053
▁mocker	-14054
▁mutter	-14055
▁myrtle	-14056
▁nectar	-14057
▁newest	-14058
▁noting	-14059
▁onward	-14060
▁opened	-14061
▁orange	-14062
▁oversh	-14063
▁owners	-14064
▁pained	-14065
▁pander	-14066
▁parado	-14067
▁patent	-14068
▁paunch	-14069
▁penury	-14070
▁pester	-14071
▁petter	-14072
▁pickle	-14073
▁pilled	-14074
▁pitchy	-14075
▁pities	-14076
▁plaint	-14077
▁plunge	-14078
▁polack	-14079
▁poland	-14080
▁ponder	-14081
▁poorer	-14082
▁portal	-14083
▁precip	-14084
▁prejud	-14085
▁propos	-14086
▁puddle	-14087
▁puling	-14088
▁rabbit	-14089
▁railed	-14090
▁random	-14091
▁ranged	-14092
▁rapine	-14093
▁realms	-14094
▁recept	-14095
▁reduce	-14096
▁repres	-14097
▁requir	-14098
▁retort	-14099
▁revers	-14100
▁riseth	-14101
▁satire	-14102
▁scaped	-14103
▁scared	-14104
▁scarfs	-14105
▁scathe	-14106
▁scouts	-14107
▁scraps	-14108
▁sedges	-14109
▁sender	-14110
▁shaken	-14111
▁shaped	-14112
▁shares	-14113
▁shears	-14114
▁shiver	-14115
▁simois	-14116
▁sinner	-14117
▁softer	-14118
▁spares	-14119
▁speeds	-14120
▁spells	-14121
▁sprink	-14122
▁stalls	-14123
▁steads	-14124
▁stools	-14125
▁strand	-14126
▁strove	-14127
▁suffra	-14128
▁sundry	-14129
▁superf	-14130
▁swains	-14131
▁sweats	-14132
▁swerve	-14133
▁taming	-14134
▁tangle	-14135
▁tellus	-14136
▁tempor	-14137
▁tended	-14138
▁thatch	-14139
▁throes	-14140
▁timber	-14141
▁tiring	-14142
▁tossed	-14143
▁triple	-14144
▁trophy	-14145
▁trunks	-14146
▁tucket	-14147
▁turkey	-14148
▁tutors	-14149
▁tyrian	-14150
▁uneasy	-14151
▁unfelt	-14152
▁unfirm	-14153
▁unheed	-14154
▁unholy	-14155
▁unmask	-14156
▁unused	-14157
▁usurps	-14158
▁valley	-14159
▁values	-14160
▁veiled	-14161
▁verbal	-14162
▁volsce	-14163
▁wastes	-14164
▁yeomen	-14165
astingly	-14166
breaking	-14167
breeding	-14168
daughter	-14169
ensation	-14170
jections	-14171
offering	-14172
ractions	-14173
regnable	-14174
remember	-14175
rosalind	-14176
shearing	-14177
sickness	-14178
speaking	-14179
spirited	-14180
throwing	-14181
▁abusing	-14182
▁acquire	-14183
▁adjunct	-14184
▁adriano	-14185
▁affront	-14186
▁alarbus	-14187
▁anchors	-14188
▁angered	-14189
▁anticip	-14190
▁anybody	-14191
▁appease	-14192
▁appelez	-14193
▁approof	-14194
▁arabian	-14195
▁ascends	-14196
▁askance	-14197
▁badness	-14198
▁bagpipe	-14199
▁basilis	-14200
▁bawcock	-14201
▁beadles	-14202
▁benison	-14203
▁bereave	-14204
▁besmear	-14205
▁bespoke	-14206
▁bestows	-14207
▁blacker	-14208
▁blanket	-14209
▁blinded	-14210
▁blotted	-14211
▁blubber	-14212
▁blushed	-14213
▁bondmen	-14214
▁bounded	-14215
▁branded	-14216
▁bravest	-14217
▁brevity	-14218
▁brinish	-14219
▁buckler	-14220
▁buffets	-14221
▁bulwark	-14222
▁burthen	-14223
▁burying	-14224
▁buttock	-14225
▁cankers	-14226
▁cannons	-14227
▁caskets	-14228
▁catches	-14229
▁chatter	-14230
▁cheered	-14231
▁chidden	-14232
▁cinders	-14233
▁circuit	-14234
▁cleared	-14235
▁clerkly	-14236
▁coldest	-14237
▁commune	-14238
▁comprom	-14239
▁condole	-14240
▁congeal	-14241
▁consign	-14242
▁corresp	-14243
▁couples	-14244
▁crabbed	-14245
▁cracked	-14246
▁credent	-14247
▁cropped	-14248
▁cruelly	-14249
▁currish	-14250
▁debated	-14251
▁default	-14252
▁defunct	-14253
▁deities	-14254
▁deniest	-14255
▁derives	-14256
▁descant	-14257
▁devours	-14258
▁differs	-14259
▁dimpled	-14260
▁dispute	-14261
▁distaff	-14262
▁distain	-14263
▁distant	-14264
▁distemp	-14265
▁dolours	-14266
▁eclipse	-14267
▁enacted	-14268
▁engines	-14269
▁epithet	-14270
▁espouse	-14271
▁ethiope	-14272
▁exhibit	-14273
▁expects	-14274
▁expound	-14275
▁extract	-14276
▁feasted	-14277
▁females	-14278
▁fervour	-14279
▁fetches	-14280
▁fighter	-14281
▁flashes	-14282
▁flouted	-14283
▁flowing	-14284
▁foaming	-14285
▁founder	-14286
▁fretful	-14287
▁fulsome	-14288
▁furnace	-14289
▁fustian	-14290
▁gainsay	-14291
▁gallery	-14292
▁gambols	-14293
▁gaolers	-14294
▁garnish	-14295
▁germans	-14296
▁haggard	-14297
▁hawking	-14298
▁hazards	-14299
▁healths	-14300
▁heathen	-14301
▁helmets	-14302
▁helpful	-14303
▁honneur	-14304
▁hunters	-14305
▁ignobly	-14306
▁immured	-14307
▁jarring	-14308
▁jollity	-14309
▁kentish	-14310
▁largely	-14311
▁largess	-14312
▁lawyers	-14313
▁leander	-14314
▁lecture	-14315
▁lending	-14316
▁leopard	-14317
▁licence	-14318
▁limited	-14319
▁lingers	-14320
▁lolling	-14321
▁lurking	-14322
▁lustily	-14323
▁malmsey	-14324
▁mandate	-14325
▁marcadé	-14326
▁margent	-14327
▁mariner	-14328
▁maskers	-14329
▁matches	-14330
▁matrons	-14331
▁mattock	-14332
▁mention	-14333
▁minding	-14334
▁misenum	-14335
▁mislead	-14336
▁misused	-14337
▁monkeys	-14338
▁mounteb	-14339
▁neutral	-14340
▁noisome	-14341
▁nostril	-14342
▁nowhere	-14343
▁nursery	-14344
▁omitted	-14345
▁orators	-14346
▁ordered	-14347
▁outworn	-14348
▁patrick	-14349
▁peacock	-14350
▁peascod	-14351
▁pebbles	-14352
▁peeping	-14353
▁plainer	-14354
▁plaints	-14355
▁pledges	-14356
▁portend	-14357
▁posting	-14358
▁potency	-14359
▁preserv	-14360
▁presses	-14361
▁privily	-14362
▁prodigy	-14363
▁progeny	-14364
▁prompts	-14365
▁puppies	-14366
▁purchas	-14367
▁raining	-14368
▁reflect	-14369
▁renders	-14370
▁reverse	-14371
▁revolve	-14372
▁rounded	-14373
▁sainted	-14374
▁savages	-14375
▁scanted	-14376
▁scoured	-14377
▁sealing	-14378
▁sequest	-14379
▁seventy	-14380
▁sharing	-14381
▁sharply	-14382
▁sherris	-14383
▁shrinks	-14384
▁sincere	-14385
▁singled	-14386
▁sinking	-14387
▁sinners	-14388
▁slaught	-14389
▁slavery	-14390
▁slipped	-14391
▁smeared	-14392
▁smoking	-14393
▁someone	-14394
▁sonnets	-14395
▁spanish	-14396
▁sparkle	-14397
▁specify	-14398
▁spiders	-14399
▁spleens	-14400
▁spurred	-14401
▁started	-14402
▁statues	-14403
▁steeped	-14404
▁sterile	-14405
▁stoutly	-14406
▁stripes	-14407
▁sugared	-14408
▁surpris	-14409
▁taborer	-14410
▁taffeta	-14411
▁tenders	-14412
▁thrifty	-14413
▁tilting	-14414
▁traders	-14415
▁unbless	-14416
▁unheard	-14417
▁unloose	-14418
▁unmanly	-14419
▁upholds	-14420
▁valleys	-14421
▁varlets	-14422
▁veriest	-14423
▁vesture	-14424
▁vintner	-14425
▁visages	-14426
▁visible	-14427
▁volumes	-14428
▁wantons	-14429
▁waspish	-14430
▁wasting	-14431
▁whining	-14432
▁winning	-14433
▁wronger	-14434
advancing	-14435
advantage	-14436
embracing	-14437
ercharged	-14438
ibilities	-14439
ification	-14440
▁adjudged	-14441
▁alacrity	-14442
▁aldermen	-14443
▁ancestry	-14444
▁antiates	-14445
▁apoplexy	-14446
▁arrogant	-14447
▁artesius	-14448
▁attained	-14449
▁auvergne	-14450
▁banditti	-14451
▁bankrout	-14452
▁bareness	-14453
▁basilisk	-14454
▁begotten	-14455
▁believes	-14456
▁bettered	-14457
▁blasphem	-14458
▁blasting	-14459
▁bloodily	-14460
▁bruising	-14461
▁burgonet	-14462
▁capulets	-14463
▁caputius	-14464
▁carriers	-14465
▁censured	-14466
▁censures	-14467
▁cerberus	-14468
▁charging	-14469
▁chickens	-14470
▁claribel	-14471
▁commerce	-14472
▁compared	-14473
▁condemns	-14474
▁confirms	-14475
▁confused	-14476
▁conjures	-14477
▁conquers	-14478
▁consists	-14479
▁contumel	-14480
▁counterm	-14481
▁counters	-14482
▁cozenage	-14483
▁cozening	-14484
▁creating	-14485
▁crescent	-14486
▁crutches	-14487
▁cuckolds	-14488
▁cutpurse	-14489
▁dateless	-14490
▁debating	-14491
▁declines	-14492
▁decrepit	-14493
▁defences	-14494
▁defended	-14495
▁delivery	-14496
▁derision	-14497
▁derogate	-14498
▁destined	-14499
▁digested	-14500
▁discords	-14501
▁dismayed	-14502
▁displeas	-14503
▁distrust	-14504
▁donation	-14505
▁doricles	-14506
▁dropping	-14507
▁dumbness	-14508
▁effusion	-14509
▁enclosed	-14510
▁endeared	-14511
▁engender	-14512
▁entombed	-14513
▁epitaphs	-14514
▁erewhile	-14515
▁examined	-14516
▁exceeded	-14517
▁fairness	-14518
▁fearless	-14519
▁finished	-14520
▁foregone	-14521
▁forsaken	-14522
▁foulness	-14523
▁frequent	-14524
▁galliard	-14525
▁garrison	-14526
▁gramercy	-14527
▁grinning	-14528
▁guardian	-14529
▁handling	-14530
▁hannibal	-14531
▁heroical	-14532
▁hogshead	-14533
▁holmedon	-14534
▁hostages	-14535
▁hundreds	-14536
▁impostor	-14537
▁impotent	-14538
▁inhabits	-14539
▁intellig	-14540
▁interred	-14541
▁invested	-14542
▁jephthah	-14543
▁jointure	-14544
▁knighted	-14545
▁knightly	-14546
▁lamented	-14547
▁lanthorn	-14548
▁leanness	-14549
▁lectures	-14550
▁leonardo	-14551
▁lodowick	-14552
▁magician	-14553
▁maladies	-14554
▁marjoram	-14555
▁marullus	-14556
▁masquers	-14557
▁meanings	-14558
▁meddling	-14559
▁meekness	-14560
▁memorial	-14561
▁metaphor	-14562
▁minority	-14563
▁mistakes	-14564
▁moisture	-14565
▁nameless	-14566
▁nevilles	-14567
▁nostrils	-14568
▁opposing	-14569
▁outfaced	-14570
▁outright	-14571
▁parching	-14572
▁pardoned	-14573
▁particip	-14574
▁phaëthon	-14575
▁pitiless	-14576
▁ploughed	-14577
▁poniards	-14578
▁portents	-14579
▁prabbles	-14580
▁prepares	-14581
▁prompted	-14582
▁pronounc	-14583
▁prophets	-14584
▁protests	-14585
▁proverbs	-14586
▁province	-14587
▁quarters	-14588
▁ratified	-14589
▁rattling	-14590
▁ravisher	-14591
▁readiest	-14592
▁rearward	-14593
▁reprieve	-14594
▁requited	-14595
▁residing	-14596
▁revealed	-14597
▁rigorous	-14598
▁rudeness	-14599
▁sanctify	-14600
▁scarcity	-14601
▁sceptres	-14602
▁scolding	-14603
▁scruples	-14604
▁seasoned	-14605
▁sensibly	-14606
▁sequence	-14607
▁servitor	-14608
▁shooting	-14609
▁signieur	-14610
▁silenced	-14611
▁sleepers	-14612
▁southern	-14613
▁sparrows	-14614
▁speeding	-14615
▁spurring	-14616
▁staggers	-14617
▁standard	-14618
▁standers	-14619
▁sticking	-14620
▁stooping	-14621
▁suborned	-14622
▁supplant	-14623
▁surcease	-14624
▁surmises	-14625
▁suspects	-14626
▁swallows	-14627
▁sweeting	-14628
▁sycamore	-14629
▁syracusa	-14630
▁tapsters	-14631
▁tarpeian	-14632
▁tendance	-14633
▁thickest	-14634
▁thirteen	-14635
▁thwarted	-14636
▁traverse	-14637
▁trembled	-14638
▁trifling	-14639
▁tripping	-14640
▁tumbling	-14641
▁unawares	-14642
▁unfolded	-14643
▁unlikely	-14644
▁unpeople	-14645
▁unpitied	-14646
▁unseason	-14647
▁uplifted	-14648
▁vagabond	-14649
▁validity	-14650
▁vanishes	-14651
▁victuals	-14652
▁vocation	-14653
▁vouchsaf	-14654
▁williams	-14655
▁withdrew	-14656
▁wrestled	-14657
favouredly	-14658
istinguish	-14659
presenting	-14660
▁abandoned	-14661
▁abatement	-14662
▁abilities	-14663
[...]
